{
  "version": "1.0",
  "truncation": null,
  "padding": null,
  "added_tokens": [
    {
      "id": 0,
      "content": "[PAD]",
      "single_word": false,
      "lstrip": false,
      "rstrip": false,
      "normalized": false,
      "special": true
    },
    {
      "id": 1,
      "content": "[BOS]",
      "single_word": false,
      "lstrip": false,
      "rstrip": false,
      "normalized": false,
      "special": true
    },
    {
      "id": 2,
      "content": "[EOS]",
      "single_word": false,
      "lstrip": false,
      "rstrip": false,
      "normalized": false,
      "special": true
    },
    {
      "id": 3,
      "content": "[UNK]",
      "single_word": false,
      "lstrip": false,
      "rstrip": false,
      "normalized": false,
      "special": true
    }
  ],
  "normalizer": null,
  "pre_tokenizer": {
    "type": "Whitespace"
  },
  "post_processor": null,
  "decoder": null,
  "model": {
    "type": "BPE",
    "dropout": null,
    "unk_token": null,
    "continuing_subword_prefix": null,
    "end_of_word_suffix": null,
    "fuse_unk": false,
    "byte_fallback": false,
    "ignore_merges": false,
    "vocab": {
      "[PAD]": 0,
      "[BOS]": 1,
      "[EOS]": 2,
      "[UNK]": 3,
      "#": 4,
      "+": 5,
      "-": 6,
      "1": 7,
      "2": 8,
      "3": 9,
      "4": 10,
      "5": 11,
      "6": 12,
      "7": 13,
      "8": 14,
      "=": 15,
      "B": 16,
      "K": 17,
      "N": 18,
      "O": 19,
      "Q": 20,
      "R": 21,
      "a": 22,
      "b": 23,
      "c": 24,
      "d": 25,
      "e": 26,
      "f": 27,
      "g": 28,
      "h": 29,
      "x": 30,
      "xd": 31,
      "xe": 32,
      "xf": 33,
      "Nf": 34,
      "xc": 35,
      "Nc": 36,
      "e4": 37,
      "e5": 38,
      "xg": 39,
      "d4": 40,
      "d5": 41,
      "Be": 42,
      "xb": 43,
      "Bg": 44,
      "Kf": 45,
      "d6": 46,
      "d7": 47,
      "Kg": 48,
      "d3": 49,
      "xd5": 50,
      "c4": 51,
      "Rf": 52,
      "Re": 53,
      "d2": 54,
      "xd4": 55,
      "Ra": 56,
      "c5": 57,
      "Bb": 58,
      "Nf3": 59,
      "xe5": 60,
      "Nf6": 61,
      "h6": 62,
      "h5": 63,
      "e6": 64,
      "h4": 65,
      "h3": 66,
      "xa": 67,
      "f4": 68,
      "xe4": 69,
      "Rc": 70,
      "Ng": 71,
      "Nb": 72,
      "Nc3": 73,
      "Qe": 74,
      "Nc6": 75,
      "f5": 76,
      "Qc": 77,
      "Rb": 78,
      "Bxf": 79,
      "Ke": 80,
      "f6": 81,
      "Kh": 82,
      "f3": 83,
      "a5": 84,
      "c6": 85,
      "a6": 86,
      "d8": 87,
      "d1": 88,
      "Qg": 89,
      "Qb": 90,
      "a4": 91,
      "c3": 92,
      "Ne": 93,
      "Rg": 94,
      "Kb": 95,
      "a3": 96,
      "Bxc": 97,
      "g6": 98,
      "b5": 99,
      "Rxf": 100,
      "Qxf": 101,
      "Be7": 102,
      "b4": 103,
      "Rh": 104,
      "Nxf": 105,
      "Bd3": 106,
      "xe6": 107,
      "bxc": 108,
      "g4": 109,
      "Rxd": 110,
      "Nxc": 111,
      "g5": 112,
      "Ne5": 113,
      "Be3": 114,
      "g3": 115,
      "Bg5": 116,
      "xg5": 117,
      "Re1": 118,
      "Rxc": 119,
      "Qxd": 120,
      "Ne4": 121,
      "exd5": 122,
      "Bc4": 123,
      "e3": 124,
      "Qxc": 125,
      "Be2": 126,
      "b6": 127,
      "xg4": 128,
      "dxc": 129,
      "Kc": 130,
      "b3": 131,
      "cxd4": 132,
      "Nd5": 133,
      "xh": 134,
      "Re8": 135,
      "xe3": 136,
      "xb5": 137,
      "exf": 138,
      "gxf": 139,
      "Bg4": 140,
      "Nxe5": 141,
      "xg6": 142,
      "Bd6": 143,
      "Rxa": 144,
      "Bg7": 145,
      "Nxd4": 146,
      "dxe5": 147,
      "xb4": 148,
      "Bxd": 149,
      "Qe2": 150,
      "Be6": 151,
      "Bd7": 152,
      "Nd4": 153,
      "xe7": 154,
      "Nd7": 155,
      "Nxe4": 156,
      "cxd5": 157,
      "Bf4": 158,
      "Qd2": 159,
      "Bb7": 160,
      "Qc7": 161,
      "Qe7": 162,
      "Qf": 163,
      "Bb5": 164,
      "xg3": 165,
      "Kg7": 166,
      "Nxd": 167,
      "Bc5": 168,
      "Nxd5": 169,
      "Nd2": 170,
      "Kg2": 171,
      "Bxf6": 172,
      "Ne7": 173,
      "Rc8": 174,
      "Bd2": 175,
      "Bf5": 176,
      "Kf7": 177,
      "Bc": 178,
      "Qf3": 179,
      "Bb4": 180,
      "e1": 181,
      "Kf2": 182,
      "Rd1": 183,
      "Rd8": 184,
      "Rxb": 185,
      "xg7": 186,
      "Ke7": 187,
      "Qd7": 188,
      "Qc2": 189,
      "Rc1": 190,
      "exd4": 191,
      "xe2": 192,
      "Kxf": 193,
      "Bxf3": 194,
      "Ne2": 195,
      "Ng5": 196,
      "Qxa": 197,
      "Ke2": 198,
      "dxe4": 199,
      "Bg2": 200,
      "e8": 201,
      "Qf6": 202,
      "Nf5": 203,
      "Qxb": 204,
      "Kh1": 205,
      "Rb8": 206,
      "Qb6": 207,
      "Kf8": 208,
      "Kh8": 209,
      "xh6": 210,
      "Bf": 211,
      "Kf6": 212,
      "xg2": 213,
      "Qd3": 214,
      "Bb2": 215,
      "Nf4": 216,
      "Nc5": 217,
      "Kf3": 218,
      "Ng4": 219,
      "Rb1": 220,
      "Bxa": 221,
      "Kh2": 222,
      "Ke3": 223,
      "Kd7": 224,
      "Kf1": 225,
      "Nc4": 226,
      "Bxe5": 227,
      "Kg3": 228,
      "Rf8": 229,
      "xh5": 230,
      "Kh7": 231,
      "Nbd7": 232,
      "Rf1": 233,
      "Bxc6": 234,
      "Qxd5": 235,
      "xh4": 236,
      "Kd2": 237,
      "Kg6": 238,
      "Qxd4": 239,
      "Ke6": 240,
      "Kg8": 241,
      "Rxe": 242,
      "Bxe4": 243,
      "xh3": 244,
      "Qb3": 245,
      "Qd6": 246,
      "Bxc3": 247,
      "fxe5": 248,
      "Qh5": 249,
      "Qe3": 250,
      "Rac": 251,
      "Qg4": 252,
      "Bxb": 253,
      "Rd2": 254,
      "Rd7": 255,
      "Nbd2": 256,
      "Bxd5": 257,
      "Qg5": 258,
      "Kd3": 259,
      "Bf6": 260,
      "Kd6": 261,
      "bxc3": 262,
      "Bb3": 263,
      "Re2": 264,
      "Rg8": 265,
      "Ng6": 266,
      "Kg1": 267,
      "Rd": 268,
      "Qg3": 269,
      "a2": 270,
      "Qa5": 271,
      "Qh4": 272,
      "Bxd4": 273,
      "Re7": 274,
      "bxc6": 275,
      "Kf4": 276,
      "Rg1": 277,
      "dxc4": 278,
      "Kf5": 279,
      "Ng3": 280,
      "Rad1": 281,
      "xh7": 282,
      "Bd4": 283,
      "Kxd": 284,
      "Qe6": 285,
      "a7": 286,
      "Nb5": 287,
      "Bf3": 288,
      "Nb6": 289,
      "Ke5": 290,
      "Ke4": 291,
      "xb3": 292,
      "Nb4": 293,
      "Be4": 294,
      "Qf4": 295,
      "Bd5": 296,
      "h2": 297,
      "Kc7": 298,
      "dxc5": 299,
      "Qd5": 300,
      "Qxf3": 301,
      "Nd6": 302,
      "Nxf6": 303,
      "Qe4": 304,
      "Qd4": 305,
      "Rc7": 306,
      "Nxa": 307,
      "Nh5": 308,
      "h7": 309,
      "Bxc4": 310,
      "Qg6": 311,
      "Kg4": 312,
      "Kc2": 313,
      "Qe5": 314,
      "Ne3": 315,
      "Rf2": 316,
      "Rf7": 317,
      "Kg5": 318,
      "Rc2": 319,
      "Qf5": 320,
      "Kd4": 321,
      "Qd8": 322,
      "Be5": 323,
      "Bc6": 324,
      "e7": 325,
      "fxe4": 326,
      "Bg3": 327,
      "exf5": 328,
      "Nxc6": 329,
      "Nd3": 330,
      "Kc6": 331,
      "bxa": 332,
      "Qxe5": 333,
      "Qxf6": 334,
      "Rad8": 335,
      "Rxd8": 336,
      "Bh4": 337,
      "Bh6": 338,
      "Ne6": 339,
      "Kd5": 340,
      "xb6": 341,
      "Nh4": 342,
      "Bg6": 343,
      "Kc3": 344,
      "Qxe4": 345,
      "Rxd1": 346,
      "xd6": 347,
      "hxg5": 348,
      "axb5": 349,
      "Qa4": 350,
      "Bxc5": 351,
      "Qc6": 352,
      "Kb1": 353,
      "Ra8": 354,
      "Nxf3": 355,
      "xh2": 356,
      "axb4": 357,
      "Re3": 358,
      "Bxf4": 359,
      "exf4": 360,
      "e2": 361,
      "Ra1": 362,
      "Ke8": 363,
      "Bxf5": 364,
      "hxg4": 365,
      "Qc3": 366,
      "Nb3": 367,
      "Kc5": 368,
      "Kd8": 369,
      "Rf3": 370,
      "Qd1": 371,
      "Rd3": 372,
      "Nxc3": 373,
      "Bc3": 374,
      "Ba6": 375,
      "Kc4": 376,
      "Bb6": 377,
      "fxe6": 378,
      "Qc5": 379,
      "gxf6": 380,
      "Kb8": 381,
      "Bh5": 382,
      "Rfe1": 383,
      "Qf2": 384,
      "Rab": 385,
      "gxf3": 386,
      "Bxe6": 387,
      "Na5": 388,
      "Kxc": 389,
      "Rd6": 390,
      "a1": 391,
      "Kh6": 392,
      "a8": 393,
      "Qf7": 394,
      "hxg6": 395,
      "Kh3": 396,
      "Qxd6": 397,
      "Qxd3": 398,
      "Qc4": 399,
      "Bc2": 400,
      "Kb6": 401,
      "bxc4": 402,
      "Rh8": 403,
      "Re6": 404,
      "Qe1": 405,
      "Rxe8": 406,
      "Rxe5": 407,
      "bxc5": 408,
      "gxf5": 409,
      "Qe8": 410,
      "Rh1": 411,
      "Kd1": 412,
      "Rf6": 413,
      "Rfe8": 414,
      "Ra7": 415,
      "Ke1": 416,
      "Qxe7": 417,
      "Qb4": 418,
      "Bxd6": 419,
      "Rxe1": 420,
      "Bxg5": 421,
      "Na4": 422,
      "exf6": 423,
      "Kb3": 424,
      "Rb7": 425,
      "Rac8": 426,
      "Ra2": 427,
      "Qb5": 428,
      "Rb2": 429,
      "Rxf7": 430,
      "Rac1": 431,
      "Re4": 432,
      "Kb7": 433,
      "Nh6": 434,
      "Bxe7": 435,
      "Rxe4": 436,
      "Qh3": 437,
      "Qc8": 438,
      "Nxc4": 439,
      "Kb2": 440,
      "Rg3": 441,
      "Bh3": 442,
      "Rd4": 443,
      "Rc6": 444,
      "f1": 445,
      "Qxe6": 446,
      "Rae1": 447,
      "Rc3": 448,
      "Re5": 449,
      "Kb4": 450,
      "Kb5": 451,
      "Rxd4": 452,
      "Rxd5": 453,
      "c8": 454,
      "Rd5": 455,
      "gxf4": 456,
      "Nxe6": 457,
      "xh8": 458,
      "Qh6": 459,
      "Bxd3": 460,
      "f8": 461,
      "Rf4": 462,
      "Ba3": 463,
      "Qxg5": 464,
      "Rxf2": 465,
      "Na6": 466,
      "Qxc3": 467,
      "Nxc5": 468,
      "Rxe6": 469,
      "Qxe3": 470,
      "Qxb2": 471,
      "Rxb2": 472,
      "xe8": 473,
      "xd3": 474,
      "Qxc6": 475,
      "Nc7": 476,
      "fxg6": 477,
      "Rf5": 478,
      "Bxe3": 479,
      "Kc8": 480,
      "Qc1": 481,
      "Rxf8": 482,
      "Rb3": 483,
      "c1": 484,
      "Rfd1": 485,
      "Rfd8": 486,
      "Qxc4": 487,
      "Nxe3": 488,
      "fxe3": 489,
      "Rxf6": 490,
      "xe1": 491,
      "Rxd6": 492,
      "Qb7": 493,
      "Bxg4": 494,
      "Qxf4": 495,
      "Rc4": 496,
      "Rg2": 497,
      "Rg7": 498,
      "Rae8": 499,
      "Qxd7": 500,
      "Na3": 501,
      "hxg3": 502,
      "Bxd7": 503,
      "Qxe2": 504,
      "Qg7": 505,
      "h8": 506,
      "Qxb7": 507,
      "Bxg7": 508,
      "Rb6": 509,
      "Rg6": 510,
      "Kh4": 511,
      "Ra3": 512,
      "Rxf3": 513,
      "Rxb7": 514,
      "cxb5": 515,
      "Rc5": 516,
      "Rxf4": 517,
      "Rxf1": 518,
      "Kxg7": 519,
      "Qxc5": 520,
      "Qxg4": 521,
      "Nh3": 522,
      "Nd": 523,
      "Rxe7": 524,
      "Nxf4": 525,
      "Nxf5": 526,
      "Nxd3": 527,
      "Kh5": 528,
      "Nxd7": 529,
      "Ba4": 530,
      "dxc6": 531,
      "Nc2": 532,
      "Nxd6": 533,
      "Kc1": 534,
      "Bxb5": 535,
      "Nge7": 536,
      "axb3": 537,
      "Bc7": 538,
      "Ra6": 539,
      "Rh2": 540,
      "Qxd2": 541,
      "Bxh6": 542,
      "Rxe3": 543,
      "Nxg5": 544,
      "Rxa2": 545,
      "Kxa": 546,
      "Rh3": 547,
      "Rxf5": 548,
      "Rh7": 549,
      "Rxd3": 550,
      "exd6": 551,
      "Qxd8": 552,
      "Qb2": 553,
      "Bxd2": 554,
      "Bf8": 555,
      "Rxc3": 556,
      "Qxf7": 557,
      "Rxd7": 558,
      "Qxf5": 559,
      "Rxc8": 560,
      "Rxa7": 561,
      "Bxe2": 562,
      "h1": 563,
      "Qg2": 564,
      "Nf7": 565,
      "xh1": 566,
      "Rxd2": 567,
      "Bxf7": 568,
      "Kxf7": 569,
      "Bc8": 570,
      "Rxc1": 571,
      "Rg4": 572,
      "Rxc2": 573,
      "Nxe7": 574,
      "Qxd1": 575,
      "Nxg4": 576,
      "Bf2": 577,
      "Rg5": 578,
      "cxb4": 579,
      "fxg5": 580,
      "Rh6": 581,
      "Ra5": 582,
      "Nxb": 583,
      "Rb4": 584,
      "Ra4": 585,
      "g1": 586,
      "axb6": 587,
      "Rxc6": 588,
      "fxg3": 589,
      "Rb5": 590,
      "Rxe2": 591,
      "cxd6": 592,
      "g8": 593,
      "Bxb4": 594,
      "Rxc7": 595,
      "Nf2": 596,
      "Qxf2": 597,
      "Bf1": 598,
      "fxg4": 599,
      "Rh4": 600,
      "Rxc5": 601,
      "Rab1": 602,
      "xg8": 603,
      "Rxc4": 604,
      "dxc3": 605,
      "Rh5": 606,
      "Nge2": 607,
      "Bxb2": 608,
      "Nxd2": 609,
      "Bc1": 610,
      "Qxg7": 611,
      "Qf8": 612,
      "Nxf7": 613,
      "Ba5": 614,
      "Qxg6": 615,
      "Rxg2": 616,
      "Rxg7": 617,
      "Qb8": 618,
      "Bxb7": 619,
      "Qxg2": 620,
      "Rab8": 621,
      "gxh5": 622,
      "cxd3": 623,
      "Qa3": 624,
      "Nxg6": 625,
      "Bxg6": 626,
      "Nh2": 627,
      "Qxc2": 628,
      "Bxg2": 629,
      "dxe6": 630,
      "Qf1": 631,
      "Bxh3": 632,
      "Nxb5": 633,
      "Kxg2": 634,
      "Qxb5": 635,
      "exf3": 636,
      "Rxa6": 637,
      "Ne8": 638,
      "Qa6": 639,
      "Qxc7": 640,
      "Bf7": 641,
      "Qb1": 642,
      "Nxe2": 643,
      "Nf8": 644,
      "b8": 645,
      "Bxa6": 646,
      "Nxg3": 647,
      "b1": 648,
      "Qxa2": 649,
      "Qxh6": 650,
      "Rxa3": 651,
      "c7": 652,
      "gxh6": 653,
      "Bxf2": 654,
      "Qxh4": 655,
      "Rxh7": 656,
      "xg1": 657,
      "Qxg3": 658,
      "Kxf2": 659,
      "Nf1": 660,
      "Bxg3": 661,
      "Ka3": 662,
      "Rxa1": 663,
      "Rxa4": 664,
      "Qxa7": 665,
      "Ka6": 666,
      "Qxh5": 667,
      "Ka5": 668,
      "Qxb4": 669,
      "Ba2": 670,
      "gxh4": 671,
      "Nh7": 672,
      "Rxa5": 673,
      "Ngf6": 674,
      "Qxh7": 675,
      "Be8": 676,
      "Ka4": 677,
      "c2": 678,
      "Qh7": 679,
      "Nxb4": 680,
      "Ka2": 681,
      "f7": 682,
      "bxa4": 683,
      "Qxh3": 684,
      "Ka7": 685,
      "f2": 686,
      "Rxh5": 687,
      "Rxa8": 688,
      "Rfc8": 689,
      "Rxb4": 690,
      "Rxb5": 691,
      "Rxg5": 692,
      "Rxg6": 693,
      "Rxh6": 694,
      "Rxb3": 695,
      "Nxb3": 696,
      "Kxd8": 697,
      "Nxf2": 698,
      "Rxh2": 699,
      "Qh2": 700,
      "Rxg3": 701,
      "Rxh3": 702,
      "Ne1": 703,
      "Rxh4": 704,
      "Bxf8": 705,
      "Rxg4": 706,
      "Qxb6": 707,
      "gxh3": 708,
      "Nxc7": 709,
      "bxa5": 710,
      "Rxb6": 711,
      "Qxb3": 712,
      "Kxb": 713,
      "b7": 714,
      "Bd8": 715,
      "b2": 716,
      "Nxc2": 717,
      "Bxa3": 718,
      "Bd1": 719,
      "Qa1": 720,
      "Qa8": 721,
      "Rhe1": 722,
      "Kxf8": 723,
      "Bb1": 724,
      "Qxa8": 725,
      "Bxf1": 726,
      "Rxb8": 727,
      "Be1": 728,
      "Qh8": 729,
      "Qxe8": 730,
      "Nfd7": 731,
      "cxb3": 732,
      "Qa7": 733,
      "Rfc1": 734,
      "Ka1": 735,
      "Qxe1": 736,
      "Qxf8": 737,
      "Bxd8": 738,
      "Nb8": 739,
      "Ka8": 740,
      "Bxh4": 741,
      "Nxh4": 742,
      "Nxb6": 743,
      "R1": 744,
      "Bxc2": 745,
      "Kxf1": 746,
      "Rxb1": 747,
      "g7": 748,
      "Bxb6": 749,
      "Qxa1": 750,
      "Qxa6": 751,
      "Qa2": 752,
      "R8": 753,
      "Rhe8": 754,
      "Bxa1": 755,
      "Kxe7": 756,
      "Qxa3": 757,
      "cxb6": 758,
      "Qxh2": 759,
      "Bxc7": 760,
      "Bxa8": 761,
      "g2": 762,
      "Nxh5": 763,
      "Kxd1": 764,
      "Kxf6": 765,
      "Kxd7": 766,
      "bxa3": 767,
      "Qh1": 768,
      "Bxh7": 769,
      "Bxh5": 770,
      "Qxa4": 771,
      "Qg8": 772,
      "Qg1": 773,
      "Qxa5": 774,
      "Bh2": 775,
      "Ng8": 776,
      "Nd1": 777,
      "Kxf3": 778,
      "Ngf3": 779,
      "bxa6": 780,
      "Bxb3": 781,
      "Kxd2": 782,
      "Kxf4": 783,
      "Bxd1": 784,
      "exd3": 785,
      "Nc8": 786,
      "Nd8": 787,
      "Nxf8": 788,
      "Raf1": 789,
      "Rde1": 790,
      "Bh7": 791,
      "Qxf1": 792,
      "Kxf5": 793,
      "Nxf1": 794,
      "Kxh7": 795,
      "Kxg5": 796,
      "dxe3": 797,
      "Nxb7": 798,
      "Nb1": 799,
      "Kxe5": 800,
      "Nxd1": 801,
      "Rxh8": 802,
      "Nxd8": 803,
      "Kxe2": 804,
      "Nxb2": 805,
      "Ba7": 806,
      "Raf8": 807,
      "Kxe6": 808,
      "Bxa7": 809,
      "Nxa8": 810,
      "Qxc1": 811,
      "Rxg8": 812,
      "Qxc8": 813,
      "Ng7": 814,
      "Kxg4": 815,
      "Kxg6": 816,
      "Rxh1": 817,
      "Kxg3": 818,
      "Nb7": 819,
      "Rhg1": 820,
      "Nxg7": 821,
      "Bxa2": 822,
      "Kxe4": 823,
      "Ng1": 824,
      "Bxh2": 825,
      "Nbc6": 826,
      "Ng2": 827,
      "Bxa4": 828,
      "Rde8": 829,
      "Rhg8": 830,
      "Kxc5": 831,
      "Nxh6": 832,
      "Kxh5": 833,
      "Rhf8": 834,
      "Qxh8": 835,
      "Nc1": 836,
      "Kxe3": 837,
      "Kxh4": 838,
      "Kxh2": 839,
      "Bxa5": 840,
      "Nxa1": 841,
      "Nxc8": 842,
      "Kxc4": 843,
      "Bb8": 844,
      "Nxa4": 845,
      "Kxd5": 846,
      "Rhd1": 847,
      "Red1": 848,
      "Rhf1": 849,
      "Nxa6": 850,
      "Nxh3": 851,
      "Rxg1": 852,
      "Kxd6": 853,
      "Nb2": 854,
      "Na7": 855,
      "Kxh6": 856,
      "Nce7": 857,
      "Kxd3": 858,
      "Bxc8": 859,
      "Ndf3": 860,
      "Bxc1": 861,
      "Nxh8": 862,
      "Kxd4": 863,
      "Bxh8": 864,
      "Nxa5": 865,
      "Nxa7": 866,
      "Kxb4": 867,
      "Rhd8": 868,
      "Nxa2": 869,
      "Nxe8": 870,
      "Nfd2": 871,
      "Kxh3": 872,
      "Rfb8": 873,
      "Nxg2": 874,
      "Kxc3": 875,
      "Nxa3": 876,
      "Nxe1": 877,
      "Kxc6": 878,
      "Nxh7": 879,
      "Ndf6": 880,
      "Bxe8": 881,
      "Nh": 882,
      "Nxc1": 883,
      "Bxe1": 884,
      "Kxb5": 885,
      "Nce2": 886,
      "Kxb2": 887,
      "Rcd8": 888,
      "Kxc2": 889,
      "Rfb1": 890,
      "Rcd1": 891,
      "Qxh1": 892,
      "xd7": 893,
      "Na2": 894,
      "Nbc3": 895,
      "cxb": 896,
      "Qxb8": 897,
      "Kxb7": 898,
      "Red8": 899,
      "Bxh1": 900,
      "Nxh2": 901,
      "Kxc7": 902,
      "Kxe8": 903,
      "Kxa4": 904,
      "Rdg1": 905,
      "Rdf1": 906,
      "Kxa5": 907,
      "xd8": 908,
      "xd1": 909,
      "Kxe1": 910,
      "xd2": 911,
      "Qxb1": 912,
      "Bxb8": 913,
      "Bxb1": 914,
      "Kxb3": 915,
      "Kxb6": 916,
      "Rdg8": 917,
      "Rbd1": 918,
      "Rdf8": 919,
      "Bg1": 920,
      "Qxg8": 921,
      "Ba8": 922,
      "R3": 923,
      "R5": 924,
      "exf7": 925,
      "Rbd8": 926,
      "Rbc1": 927,
      "Nce4": 928,
      "R4": 929,
      "Nxh1": 930,
      "R6": 931,
      "Rbc8": 932,
      "Kxa3": 933,
      "Na": 934,
      "Kxa2": 935,
      "N7": 936,
      "Kxa6": 937,
      "Bg8": 938,
      "Bh8": 939,
      "Nce5": 940,
      "Bxg8": 941,
      "R2": 942,
      "R7": 943,
      "Kxa7": 944,
      "Rce1": 945,
      "fxg7": 946,
      "Rec1": 947,
      "Nbd5": 948,
      "Kxg8": 949,
      "N2": 950,
      "Ba1": 951,
      "Qxg1": 952,
      "cxb2": 953,
      "Nxb8": 954,
      "Kxg1": 955,
      "Rce8": 956,
      "axb": 957,
      "Raxc": 958,
      "Rag1": 959,
      "Qd": 960,
      "Ncxe5": 961,
      "Rag8": 962,
      "N8": 963,
      "Ngxe5": 964,
      "N1": 965,
      "Rbe8": 966,
      "N5": 967,
      "Rdd7": 968,
      "Nge4": 969,
      "Nec6": 970,
      "Raxd8": 971,
      "Bh1": 972,
      "Rbe1": 973,
      "Raxd1": 974,
      "Nfd5": 975,
      "Rec8": 976,
      "Rdc1": 977,
      "Kxh8": 978,
      "Kxc8": 979,
      "N4": 980,
      "cxb7": 981,
      "Ree7": 982,
      "Rdc8": 983,
      "N6": 984,
      "Nbd4": 985,
      "Rhc8": 986,
      "Nxb1": 987,
      "Neg5": 988,
      "Nde4": 989,
      "Ndb5": 990,
      "Rdd2": 991,
      "Ndxe5": 992,
      "Nge5": 993,
      "exf2": 994,
      "Nxg8": 995,
      "Ree2": 996,
      "Rdd1": 997,
      "Ree1": 998,
      "Nfd4": 999,
      "Bxg1": 1000,
      "dxe7": 1001,
      "gxf7": 1002,
      "Ncxe4": 1003,
      "Kxc1": 1004,
      "dxc7": 1005,
      "gxh7": 1006,
      "fxg2": 1007,
      "hxg7": 1008,
      "hxg2": 1009,
      "Nbxd7": 1010,
      "Kxh1": 1011,
      "Rcc7": 1012,
      "Nxg1": 1013,
      "N3": 1014,
      "Rfxf": 1015,
      "Nbxd2": 1016,
      "Ref1": 1017,
      "Rdd8": 1018,
      "Nde5": 1019,
      "Rfa1": 1020,
      "Rhc1": 1021,
      "Rdh1": 1022,
      "Neg4": 1023,
      "Nfxd4": 1024,
      "Qh": 1025,
      "Rdh8": 1026,
      "Ree8": 1027,
      "Ref8": 1028,
      "exd7": 1029,
      "Nhf6": 1030,
      "Rcc2": 1031,
      "xf6": 1032,
      "dxc2": 1033,
      "Ngxe4": 1034,
      "Ned4": 1035,
      "Kxb8": 1036,
      "Nfxd5": 1037,
      "Ned5": 1038,
      "Rff1": 1039,
      "N7f6": 1040,
      "Nfe5": 1041,
      "Rfa8": 1042,
      "Raxc8": 1043,
      "Nh1": 1044,
      "Nfe4": 1045,
      "Reb1": 1046,
      "N8d7": 1047,
      "Nh8": 1048,
      "Nde2": 1049,
      "Rff7": 1050,
      "Nfg5": 1051,
      "Rff8": 1052,
      "Nec3": 1053,
      "axb2": 1054,
      "gxh2": 1055,
      "Rff2": 1056,
      "Nef6": 1057,
      "N2f3": 1058,
      "Ncd5": 1059,
      "Raa1": 1060,
      "Rcc1": 1061,
      "Qa": 1062,
      "R8d7": 1063,
      "Nbxd5": 1064,
      "Rgf1": 1065,
      "Ncd7": 1066,
      "Rfxd8": 1067,
      "fxe7": 1068,
      "Raa8": 1069,
      "Rfxd1": 1070,
      "Rcxc": 1071,
      "Rge1": 1072,
      "R1e2": 1073,
      "Ncd4": 1074,
      "Ndxe4": 1075,
      "Ncd2": 1076,
      "Rcc8": 1077,
      "Ned7": 1078,
      "Kxa8": 1079,
      "Nhf3": 1080,
      "Rah1": 1081,
      "cxd7": 1082,
      "gxf2": 1083,
      "Kxb1": 1084,
      "bxa2": 1085,
      "Raxc1": 1086,
      "Rbb1": 1087,
      "R1d2": 1088,
      "Nfg4": 1089,
      "Rcf8": 1090,
      "R8f7": 1091,
      "dxe2": 1092,
      "Rbb7": 1093,
      "Rbf8": 1094,
      "cxd2": 1095,
      "Reb8": 1096,
      "Rah8": 1097,
      "Rcf1": 1098,
      "Nef3": 1099,
      "axb7": 1100,
      "Rgf8": 1101,
      "Ncxd4": 1102,
      "Kxa1": 1103,
      "Rhb1": 1104,
      "xf7": 1105,
      "Rge8": 1106,
      "Na8": 1107,
      "exd2": 1108,
      "Rfe2": 1109,
      "Rbf1": 1110,
      "R1f2": 1111,
      "R8e7": 1112,
      "Ned2": 1113,
      "Rbb2": 1114,
      "Raa7": 1115,
      "Rbb8": 1116,
      "bxa7": 1117,
      "Ndb4": 1118,
      "Rhb8": 1119,
      "xf3": 1120,
      "Red2": 1121,
      "Ree3": 1122,
      "Raa2": 1123,
      "bxc2": 1124,
      "Rcb1": 1125,
      "Rde2": 1126,
      "xf4": 1127,
      "Nbxd4": 1128,
      "Rdb1": 1129,
      "Rcb8": 1130,
      "Red7": 1131,
      "Nhf4": 1132,
      "N6d7": 1133,
      "xf5": 1134,
      "Ncb5": 1135,
      "xf2": 1136,
      "Nfe7": 1137,
      "Nexd5": 1138,
      "N7b6": 1139,
      "Rde7": 1140,
      "N1d2": 1141,
      "Raxa": 1142,
      "Ngxe2": 1143,
      "Na1": 1144,
      "xc4": 1145,
      "Rcd7": 1146,
      "Nfxe5": 1147,
      "Ref2": 1148,
      "Nef5": 1149,
      "Nde7": 1150,
      "fxe2": 1151,
      "Rgd8": 1152,
      "bxc7": 1153,
      "Ngxe7": 1154,
      "Nexd4": 1155,
      "Rdb8": 1156,
      "xc6": 1157,
      "Rfd2": 1158,
      "xc8": 1159,
      "Rgd1": 1160,
      "Rhg2": 1161,
      "xc3": 1162,
      "Rfxf7": 1163,
      "Ref7": 1164,
      "Rgg2": 1165,
      "Ndc5": 1166,
      "Nac6": 1167,
      "Nfxe4": 1168,
      "Rfd7": 1169,
      "Rfe7": 1170,
      "Rdf2": 1171,
      "N4f3": 1172,
      "Rfg8": 1173,
      "Rdd6": 1174,
      "Nhf5": 1175,
      "Rfg1": 1176,
      "Ree6": 1177,
      "Nef4": 1178,
      "xf1": 1179,
      "Rgf7": 1180,
      "Nac4": 1181,
      "N2b3": 1182,
      "Rcd2": 1183,
      "Rbxb": 1184,
      "Rhh8": 1185,
      "Rhh1": 1186,
      "R1c2": 1187,
      "R3e2": 1188,
      "Nac5": 1189,
      "Nac3": 1190,
      "Rhg7": 1191,
      "exf8": 1192,
      "Rdc7": 1193,
      "R8c7": 1194,
      "Ncb4": 1195,
      "Rff3": 1196,
      "Rec7": 1197,
      "R1d6": 1198,
      "Raxb": 1199,
      "R1e3": 1200,
      "N7g6": 1201,
      "N5f6": 1202,
      "xc5": 1203,
      "dxc1": 1204,
      "Rdd3": 1205,
      "Ndc4": 1206,
      "Ncxd5": 1207,
      "Reg1": 1208,
      "Rgf2": 1209,
      "R1d3": 1210,
      "N2g3": 1211,
      "N8e7": 1212,
      "Rfe3": 1213,
      "R6f7": 1214,
      "N1c3": 1215,
      "N1h2": 1216,
      "Reg8": 1217,
      "Rgg7": 1218,
      "Rhg6": 1219,
      "Ndf4": 1220,
      "Rfxf2": 1221,
      "Rbc7": 1222,
      "Nec4": 1223,
      "Rdf7": 1224,
      "Ncxe7": 1225,
      "Rff6": 1226,
      "Rcc6": 1227,
      "Rce2": 1228,
      "Rcg1": 1229,
      "Nbc4": 1230,
      "Nec5": 1231,
      "dxc8": 1232,
      "Rdc2": 1233,
      "Ndf5": 1234,
      "R8g7": 1235,
      "Rgg1": 1236,
      "N2c3": 1237,
      "dxe8": 1238,
      "Nfe2": 1239,
      "Red3": 1240,
      "Rea1": 1241,
      "Rbc2": 1242,
      "Rgf6": 1243,
      "N7c6": 1244,
      "N3d2": 1245,
      "xc1": 1246,
      "Rbd7": 1247,
      "R3f2": 1248,
      "Rfd3": 1249,
      "Rec2": 1250,
      "Rgg8": 1251,
      "exf1": 1252,
      "Rab2": 1253,
      "Ndf1": 1254,
      "R8d3": 1255,
      "N5c6": 1256,
      "exd8": 1257,
      "Ncd3": 1258,
      "Rexd1": 1259,
      "Rad2": 1260,
      "Rae2": 1261,
      "Raf7": 1262,
      "Nbd6": 1263,
      "Rac7": 1264,
      "Rab7": 1265,
      "Ndf8": 1266,
      "R8d6": 1267,
      "N1e2": 1268,
      "Rexe7": 1269,
      "Rce7": 1270,
      "Rdxd7": 1271,
      "Ndc6": 1272,
      "R1g2": 1273,
      "R8e3": 1274,
      "Nhg4": 1275,
      "xf8": 1276,
      "Rfg3": 1277,
      "Ngf4": 1278,
      "Rbg1": 1279,
      "Rgf3": 1280,
      "Rdg2": 1281,
      "Ndxb5": 1282,
      "R3d2": 1283,
      "R7d6": 1284,
      "axb8": 1285,
      "Rcg7": 1286,
      "Ngxf6": 1287,
      "Rhh2": 1288,
      "Rha1": 1289,
      "Ndc3": 1290,
      "R1f3": 1291,
      "R8e6": 1292,
      "Nfg6": 1293,
      "xc7": 1294,
      "Nce3": 1295,
      "Rfc7": 1296,
      "Rfc2": 1297,
      "Rfg2": 1298,
      "Rae7": 1299,
      "Rbd2": 1300,
      "Rbg8": 1301,
      "Rhh7": 1302,
      "Rdd5": 1303,
      "Ndxe7": 1304,
      "R1e6": 1305,
      "R8c3": 1306,
      "exd1": 1307,
      "Nfg3": 1308,
      "xc2": 1309,
      "Rfe6": 1310,
      "Ree4": 1311,
      "Ree5": 1312,
      "Raf2": 1313,
      "xa2": 1314,
      "Nge3": 1315,
      "Ngxf7": 1316,
      "Ned6": 1317,
      "Rge2": 1318,
      "R1d7": 1319,
      "R1e7": 1320,
      "R8f6": 1321,
      "Ref3": 1322,
      "Rea8": 1323,
      "Rcc4": 1324,
      "Rcg2": 1325,
      "Rbf2": 1326,
      "Nexg4": 1327,
      "Rgh8": 1328,
      "Rcxc2": 1329,
      "Q1": 1330,
      "Rfe4": 1331,
      "Rcg8": 1332,
      "Rcf2": 1333,
      "Rgxg2": 1334,
      "Rgc8": 1335,
      "Rac2": 1336,
      "Rda1": 1337,
      "Ndxf6": 1338,
      "Nac7": 1339,
      "R2e3": 1340,
      "Red6": 1341,
      "Rcd6": 1342,
      "Rca8": 1343,
      "Nbd3": 1344,
      "Rbe2": 1345,
      "Rba1": 1346,
      "Rba8": 1347,
      "Rhxf1": 1348,
      "Rde3": 1349,
      "Rda8": 1350,
      "R8d5": 1351,
      "R8d2": 1352,
      "R5d7": 1353,
      "R6e7": 1354,
      "Ndxc5": 1355,
      "cxd1": 1356,
      "dxe1": 1357,
      "hxg8": 1358,
      "Nfd3": 1359,
      "Ncd6": 1360,
      "Rfg7": 1361,
      "Rfxc8": 1362,
      "xa5": 1363,
      "Rbe7": 1364,
      "Rgh1": 1365,
      "Nde6": 1366,
      "Nhg5": 1367,
      "R5e3": 1368,
      "R4e3": 1369,
      "Rfxf6": 1370,
      "Ndxc4": 1371,
      "fxe1": 1372,
      "gxh8": 1373,
      "Rfxe1": 1374,
      "Red5": 1375,
      "Ref6": 1376,
      "Reh8": 1377,
      "Reh1": 1378,
      "xa7": 1379,
      "Rcb7": 1380,
      "Ngf5": 1381,
      "Ned3": 1382,
      "Rde6": 1383,
      "R8f2": 1384,
      "R4e2": 1385,
      "R2f3": 1386,
      "N8c6": 1387,
      "Q4": 1388,
      "cxd8": 1389,
      "Nfe6": 1390,
      "Rff4": 1391,
      "Reg7": 1392,
      "Rad7": 1393,
      "Raa6": 1394,
      "Rcd3": 1395,
      "Rcc3": 1396,
      "Nge6": 1397,
      "Neg6": 1398,
      "Rdd4": 1399,
      "Rdf3": 1400,
      "bxa8": 1401,
      "Ndb6": 1402,
      "R1h7": 1403,
      "R8e4": 1404,
      "R8e2": 1405,
      "R5e7": 1406,
      "R4f3": 1407,
      "R2d3": 1408,
      "N5c3": 1409,
      "N5g6": 1410,
      "N5b6": 1411,
      "N4b3": 1412,
      "Rbxb7": 1413,
      "Q5": 1414,
      "Nfe3": 1415,
      "Rec3": 1416,
      "Rcxd8": 1417,
      "Rbb3": 1418,
      "Rbxc8": 1419,
      "Rgf4": 1420,
      "Rhf7": 1421,
      "bxc8": 1422,
      "Rdxd3": 1423,
      "Rdb2": 1424,
      "R1e5": 1425,
      "R1a2": 1426,
      "R8a7": 1427,
      "cxb8": 1428,
      "R3c2": 1429,
      "Nac2": 1430,
      "axb1": 1431,
      "Rcxc3": 1432,
      "Rbxb2": 1433,
      "Q3": 1434,
      "hxg1": 1435,
      "Nfh5": 1436,
      "Nfxg5": 1437,
      "Nfxd7": 1438,
      "Ncb6": 1439,
      "Rfh8": 1440,
      "Rexe6": 1441,
      "Rag7": 1442,
      "xa3": 1443,
      "Rcc5": 1444,
      "Rca1": 1445,
      "Rbb6": 1446,
      "Nexd7": 1447,
      "Rgc1": 1448,
      "Rhg3": 1449,
      "R8c6": 1450,
      "R8h2": 1451,
      "R8b7": 1452,
      "R5f4": 1453,
      "R4f2": 1454,
      "R6d7": 1455,
      "R7e6": 1456,
      "N6h5": 1457,
      "Raxb8": 1458,
      "Q8": 1459,
      "fxg8": 1460,
      "Nfh4": 1461,
      "Ncxb5": 1462,
      "xb2": 1463,
      "Rfxe8": 1464,
      "Ref5": 1465,
      "xa4": 1466,
      "Rcf7": 1467,
      "Rcxd1": 1468,
      "Rgd7": 1469,
      "Rge6": 1470,
      "Rhe7": 1471,
      "Rhf2": 1472,
      "bxa1": 1473,
      "R1f4": 1474,
      "R1f7": 1475,
      "R6d5": 1476,
      "Nab4": 1477,
      "R2d4": 1478,
      "R7f6": 1479,
      "N3h4": 1480,
      "N3h2": 1481,
      "Rcxc7": 1482,
      "fxe8": 1483,
      "Nfxg4": 1484,
      "Rexe5": 1485,
      "Rexe2": 1486,
      "Reb7": 1487,
      "Rae3": 1488,
      "Raxe8": 1489,
      "Rcd5": 1490,
      "Rce6": 1491,
      "Rce3": 1492,
      "Rbf7": 1493,
      "Rbxd8": 1494,
      "Neg3": 1495,
      "Nexc4": 1496,
      "Rhg5": 1497,
      "bxc1": 1498,
      "gxf8": 1499,
      "Rde4": 1500,
      "R1d5": 1501,
      "R1h2": 1502,
      "R8c5": 1503,
      "Nhf1": 1504,
      "Nhf7": 1505,
      "R4d2": 1506,
      "R6c7": 1507,
      "N8h7": 1508,
      "N1f3": 1509,
      "N4c6": 1510,
      "N4g3": 1511,
      "Raxa7": 1512,
      "Q7": 1513,
      "Nfg8": 1514,
      "Nce6": 1515,
      "Rfd6": 1516,
      "Rfh1": 1517,
      "Rfb7": 1518,
      "Rfxc1": 1519,
      "Red4": 1520,
      "Raa3": 1521,
      "Rab6": 1522,
      "xa6": 1523,
      "Rch8": 1524,
      "Rch1": 1525,
      "Ngxf3": 1526,
      "Nbc7": 1527,
      "Rbd6": 1528,
      "Rbc6": 1529,
      "Rbc3": 1530,
      "Rbg7": 1531,
      "Rbg2": 1532,
      "Nexg5": 1533,
      "Nexd2": 1534,
      "Rgd2": 1535,
      "Rgh3": 1536,
      "Rgg3": 1537,
      "Rgxg7": 1538,
      "Rge7": 1539,
      "Rhd7": 1540,
      "Rhf4": 1541,
      "Rha8": 1542,
      "Rdxd4": 1543,
      "Rdf6": 1544,
      "Rdc3": 1545,
      "Rdb7": 1546,
      "Rdxd2": 1547,
      "Ndxf3": 1548,
      "R1d4": 1549,
      "R1b2": 1550,
      "R8c2": 1551,
      "R5e4": 1552,
      "N6e7": 1553,
      "Raxb1": 1554,
      "Ncxb4": 1555,
      "xb7": 1556,
      "Rfg6": 1557,
      "Rfb2": 1558,
      "Rexd8": 1559,
      "Rcb2": 1560,
      "Qcc6": 1561,
      "Qcc3": 1562,
      "Neg8": 1563,
      "Rge3": 1564,
      "Rhd2": 1565,
      "Rhh3": 1566,
      "Rhf5": 1567,
      "Rde5": 1568,
      "Rdxd5": 1569,
      "Rdc4": 1570,
      "Rdc6": 1571,
      "Nde3": 1572,
      "R1b3": 1573,
      "R8d4": 1574,
      "R8f3": 1575,
      "R5d6": 1576,
      "R5f2": 1577,
      "R4d3": 1578,
      "R6g7": 1579,
      "Nab5": 1580,
      "Qdd2": 1581,
      "N3e4": 1582,
      "Rcxc6": 1583,
      "Ncb8": 1584,
      "Rfh3": 1585,
      "Rexe4": 1586,
      "Rac6": 1587,
      "Nbc5": 1588,
      "Nba6": 1589,
      "Qcc2": 1590,
      "Rbh8": 1591,
      "Rbxc1": 1592,
      "Qgg7": 1593,
      "Qbb1": 1594,
      "Rgg6": 1595,
      "Rgg5": 1596,
      "Rgb1": 1597,
      "Rhh4": 1598,
      "Rhf6": 1599,
      "Rhf3": 1600,
      "Rhxf8": 1601,
      "Rdg7": 1602,
      "R1f6": 1603,
      "Nhg3": 1604,
      "cxb1": 1605,
      "R3f6": 1606,
      "R5e6": 1607,
      "R5e2": 1608,
      "R4f7": 1609,
      "R6e5": 1610,
      "R7g6": 1611,
      "Rdxc3": 1612,
      "Nfe8": 1613,
      "Ncxe2": 1614,
      "Rexd5": 1615,
      "Ref4": 1616,
      "Reg3": 1617,
      "Rexd6": 1618,
      "Reb2": 1619,
      "Raxe1": 1620,
      "Rcxd4": 1621,
      "Ngf7": 1622,
      "Nbxd6": 1623,
      "Qee4": 1624,
      "Qee7": 1625,
      "Rbc5": 1626,
      "Qgg2": 1627,
      "Neg1": 1628,
      "Rgh4": 1629,
      "Rgh2": 1630,
      "Rhxh2": 1631,
      "Rhe2": 1632,
      "Rdxe6": 1633,
      "Rdxd6": 1634,
      "Ndxf4": 1635,
      "R1e4": 1636,
      "R1c6": 1637,
      "R8c4": 1638,
      "R8f5": 1639,
      "R8h7": 1640,
      "R8b2": 1641,
      "Nhf8": 1642,
      "R5d2": 1643,
      "R5f3": 1644,
      "R5c7": 1645,
      "R5f7": 1646,
      "R6d2": 1647,
      "Naxc4": 1648,
      "N7xf6": 1649,
      "R2e4": 1650,
      "R2e5": 1651,
      "N1xe2": 1652,
      "N5e4": 1653,
      "N4a6": 1654,
      "N4c3": 1655,
      "N6e5": 1656,
      "Raxa2": 1657,
      "Q6": 1658,
      "Rdxe5": 1659,
      "gxh1": 1660,
      "Rff5": 1661,
      "Rfg4": 1662,
      "Rfxe3": 1663,
      "Rfxe7": 1664,
      "Rec4": 1665,
      "Rexe3": 1666,
      "Rexc7": 1667,
      "Rab5": 1668,
      "Rab3": 1669,
      "Rag2": 1670,
      "Rcd4": 1671,
      "Rcb3": 1672,
      "Nbc2": 1673,
      "Nbxc4": 1674,
      "Qee2": 1675,
      "Qec7": 1676,
      "Qca1": 1677,
      "Qca8": 1678,
      "Rbc4": 1679,
      "Qge7": 1680,
      "Qbb3": 1681,
      "Nexc6": 1682,
      "Rgd3": 1683,
      "Rhe3": 1684,
      "Rhxh3": 1685,
      "Rhxh7": 1686,
      "Rdf4": 1687,
      "Ndb8": 1688,
      "Ndb1": 1689,
      "Nhf2": 1690,
      "Nhxf4": 1691,
      "R3e4": 1692,
      "R3d4": 1693,
      "R3c4": 1694,
      "R5f6": 1695,
      "R4d5": 1696,
      "R4c6": 1697,
      "R4c7": 1698,
      "R6d3": 1699,
      "R6f4": 1700,
      "R6f5": 1701,
      "N7d5": 1702,
      "R2d7": 1703,
      "R2h3": 1704,
      "R2c3": 1705,
      "Qdd5": 1706,
      "Qdd3": 1707,
      "N8f6": 1708,
      "N4f6": 1709,
      "Rfxf4": 1710,
      "Raxa6": 1711,
      "Nfxd2": 1712,
      "Nce8": 1713,
      "Rexd7": 1714,
      "Rae5": 1715,
      "Rac4": 1716,
      "Rcxd6": 1717,
      "Ngxe6": 1718,
      "Ngxf2": 1719,
      "Nba3": 1720,
      "Nbxc3": 1721,
      "Qce3": 1722,
      "Qcc7": 1723,
      "Rbd3": 1724,
      "Rbb4": 1725,
      "Qgg3": 1726,
      "Qgg1": 1727,
      "Qgg8": 1728,
      "Qbb2": 1729,
      "Nexd3": 1730,
      "Nec2": 1731,
      "Nexf5": 1732,
      "Rgf5": 1733,
      "Rgg4": 1734,
      "Rhe5": 1735,
      "Rhd3": 1736,
      "Rhxh4": 1737,
      "Rhc2": 1738,
      "Qfd8": 1739,
      "Qff7": 1740,
      "Rdc5": 1741,
      "Rdg3": 1742,
      "Rda7": 1743,
      "Ndb3": 1744,
      "R8g6": 1745,
      "R8b6": 1746,
      "R3g2": 1747,
      "R5d3": 1748,
      "R4e6": 1749,
      "R4e7": 1750,
      "R6f3": 1751,
      "R6c2": 1752,
      "R7d3": 1753,
      "R7e2": 1754,
      "Qdd6": 1755,
      "Qdb7": 1756,
      "N6a5": 1757,
      "Rfxf3": 1758,
      "Nhxg5": 1759,
      "Rdxe4": 1760,
      "fxg1": 1761,
      "Nca6": 1762,
      "xb1": 1763,
      "xb8": 1764,
      "Rfe5": 1765,
      "Rfxe5": 1766,
      "Rfh6": 1767,
      "Rfh4": 1768,
      "Rfc6": 1769,
      "Rfxe6": 1770,
      "Rexd4": 1771,
      "Rec5": 1772,
      "Rec6": 1773,
      "Reg2": 1774,
      "Rad4": 1775,
      "Rac5": 1776,
      "Raf3": 1777,
      "Rac3": 1778,
      "Rca6": 1779,
      "Rcxe7": 1780,
      "Ngh4": 1781,
      "Nbxc6": 1782,
      "Qec8": 1783,
      "Qec2": 1784,
      "Qcd7": 1785,
      "Qca7": 1786,
      "Rba6": 1787,
      "Rbb5": 1788,
      "Rbxd1": 1789,
      "Nexf4": 1790,
      "Nexc3": 1791,
      "Nexc5": 1792,
      "Rge4": 1793,
      "Rge5": 1794,
      "Rgh7": 1795,
      "Rhxg1": 1796,
      "Rhxf7": 1797,
      "gxf1": 1798,
      "Rdg6": 1799,
      "Rdxf1": 1800,
      "Ndxb4": 1801,
      "Ndxe2": 1802,
      "Ndxf5": 1803,
      "R1xd4": 1804,
      "R1c3": 1805,
      "R1g3": 1806,
      "R1xe2": 1807,
      "R1c7": 1808,
      "R1g7": 1809,
      "R8f4": 1810,
      "R8g3": 1811,
      "Nhxf5": 1812,
      "R3e7": 1813,
      "R5g6": 1814,
      "R4c5": 1815,
      "R4f6": 1816,
      "R6e4": 1817,
      "R6d4": 1818,
      "R6e2": 1819,
      "R2f7": 1820,
      "R7e5": 1821,
      "Qdd4": 1822,
      "N1g3": 1823,
      "N5d4": 1824,
      "N5f3": 1825,
      "N6e4": 1826,
      "N6d5": 1827,
      "N3d4": 1828,
      "N3e2": 1829,
      "Rfxf5": 1830,
      "Qhh7": 1831,
      "Qhg2": 1832,
      "Q2": 1833,
      "Nfh2": 1834,
      "Nce1": 1835,
      "Rfd4": 1836,
      "Rfg5": 1837,
      "Rfxe2": 1838,
      "Rfa7": 1839,
      "Reb6": 1840,
      "Rea2": 1841,
      "Rexe8": 1842,
      "Rad5": 1843,
      "Rad3": 1844,
      "Raa5": 1845,
      "Rce4": 1846,
      "Rcf6": 1847,
      "Rcf3": 1848,
      "Rca2": 1849,
      "Rcxd2": 1850,
      "Ngh3": 1851,
      "Ngxe3": 1852,
      "Ngh2": 1853,
      "Qee5": 1854,
      "Qee3": 1855,
      "Qee1": 1856,
      "Qcc4": 1857,
      "Rbe5": 1858,
      "Rbe3": 1859,
      "Rbh1": 1860,
      "Qbb7": 1861,
      "Nef7": 1862,
      "Nexf6": 1863,
      "Rgxg5": 1864,
      "Rgxg6": 1865,
      "Rgc7": 1866,
      "Rgxf7": 1867,
      "Rhh6": 1868,
      "Rhh5": 1869,
      "Rhe6": 1870,
      "Rhxe8": 1871,
      "Qff3": 1872,
      "Qff8": 1873,
      "Rdb6": 1874,
      "Rdb3": 1875,
      "Rdxe7": 1876,
      "Rdh2": 1877,
      "Rdxe8": 1878,
      "Rdxf7": 1879,
      "Ndxf2": 1880,
      "R1c4": 1881,
      "R1h6": 1882,
      "R1f5": 1883,
      "R1a6": 1884,
      "R1xd2": 1885,
      "R8e5": 1886,
      "R8h3": 1887,
      "R8b3": 1888,
      "Nhg6": 1889,
      "R3d5": 1890,
      "R3d6": 1891,
      "R3h4": 1892,
      "R3f4": 1893,
      "R3f5": 1894,
      "R3a2": 1895,
      "R5d4": 1896,
      "R5a6": 1897,
      "R5b7": 1898,
      "Nab6": 1899,
      "Naxc5": 1900,
      "N7e5": 1901,
      "R2c4": 1902,
      "R2g3": 1903,
      "R7h6": 1904,
      "R7e3": 1905,
      "R7b6": 1906,
      "R7g2": 1907,
      "Raxc6": 1908,
      "Qdd7": 1909,
      "Qdd8": 1910,
      "Qdb6": 1911,
      "Qdb3": 1912,
      "Qde2": 1913,
      "N5f4": 1914,
      "N5a3": 1915,
      "N4e5": 1916,
      "N3a4": 1917,
      "Qhh2": 1918,
      "Qhf8": 1919,
      "Qac3": 1920,
      "Rcxc1": 1921,
      "Rcxc4": 1922,
      "Raxa4": 1923,
      "Rdxc4": 1924,
      "Rdxc7": 1925,
      "Rdxc1": 1926,
      "Rdxc8": 1927,
      "Nfg1": 1928,
      "Ncb3": 1929,
      "Ncb1": 1930,
      "Rfa2": 1931,
      "Reh3": 1932,
      "Reg6": 1933,
      "Rexd3": 1934,
      "Rexf6": 1935,
      "Rexc2": 1936,
      "Rab4": 1937,
      "Raxf8": 1938,
      "Rce5": 1939,
      "Rcb5": 1940,
      "Rcb6": 1941,
      "Ngh6": 1942,
      "Ngf1": 1943,
      "Nbc1": 1944,
      "Qef2": 1945,
      "Qca2": 1946,
      "Qcc1": 1947,
      "Rbd5": 1948,
      "Rbxb4": 1949,
      "Rba7": 1950,
      "Rbxb3": 1951,
      "Rbxb6": 1952,
      "Rbxf2": 1953,
      "Qgg6": 1954,
      "Qbb6": 1955,
      "Qbb8": 1956,
      "Nexd6": 1957,
      "Nexf3": 1958,
      "Rgh5": 1959,
      "Rgxg4": 1960,
      "Rgb8": 1961,
      "Rgb7": 1962,
      "Rhd5": 1963,
      "Rhg4": 1964,
      "Rhxh6": 1965,
      "Rhxg8": 1966,
      "Rhxf2": 1967,
      "Qff6": 1968,
      "Qff2": 1969,
      "Rdh3": 1970,
      "Rdf5": 1971,
      "Rdxe2": 1972,
      "Rdxe1": 1973,
      "Rdxd8": 1974,
      "Ndxe6": 1975,
      "Ndxe3": 1976,
      "Ndf7": 1977,
      "Ndf2": 1978,
      "R1h3": 1979,
      "R1a5": 1980,
      "R1a3": 1981,
      "R1b6": 1982,
      "R1a7": 1983,
      "R1xd3": 1984,
      "R8h6": 1985,
      "R8b4": 1986,
      "R8xe3": 1987,
      "R8xe7": 1988,
      "R8xd6": 1989,
      "Nhg8": 1990,
      "Nhxf6": 1991,
      "R4e5": 1992,
      "R4d7": 1993,
      "R4h5": 1994,
      "R4f5": 1995,
      "R4g5": 1996,
      "R6b5": 1997,
      "Nab8": 1998,
      "R2e6": 1999,
      "R2b3": 2000,
      "R2xc3": 2001,
      "R7d4": 2002,
      "R7f5": 2003,
      "R7c6": 2004,
      "R7a6": 2005,
      "Raxc7": 2006,
      "Qdb8": 2007,
      "Qdb2": 2008,
      "N3f4": 2009,
      "N3g4": 2010,
      "Rfxf1": 2011,
      "Rcxc5": 2012,
      "Raxa5": 2013,
      "Nfxe6": 2014,
      "Nfe1": 2015,
      "Nca4": 2016,
      "Ncxe3": 2017,
      "Ncxd6": 2018,
      "Rfxe4": 2019,
      "Rfc3": 2020,
      "Rfb4": 2021,
      "Rfxd6": 2022,
      "Rfxd2": 2023,
      "Reg4": 2024,
      "Reg5": 2025,
      "Rexf3": 2026,
      "Raa4": 2027,
      "Raxb3": 2028,
      "Raxd7": 2029,
      "Rcxe6": 2030,
      "Rcxb3": 2031,
      "Rcxf7": 2032,
      "Rcxa2": 2033,
      "Ngh5": 2034,
      "Ngf8": 2035,
      "Nbxc5": 2036,
      "Qef5": 2037,
      "Qeg6": 2038,
      "Qeg7": 2039,
      "Qcd2": 2040,
      "Qce8": 2041,
      "Rbd4": 2042,
      "Rba5": 2043,
      "Qbd6": 2044,
      "Qbb4": 2045,
      "Nef1": 2046,
      "Nec7": 2047,
      "Rgd6": 2048,
      "Rgxd5": 2049,
      "Rgh6": 2050,
      "Rgxg3": 2051,
      "Rhc5": 2052,
      "Rhxe5": 2053,
      "Rhc6": 2054,
      "Rhxg2": 2055,
      "Rhc7": 2056,
      "Rhxd1": 2057,
      "Rhxf4": 2058,
      "Qfd4": 2059,
      "Qff5": 2060,
      "Qfe7": 2061,
      "Qfh8": 2062,
      "Qfh1": 2063,
      "Rdxf4": 2064,
      "R1c5": 2065,
      "R1g6": 2066,
      "R1g4": 2067,
      "R1b7": 2068,
      "R1xc3": 2069,
      "R8xe4": 2070,
      "R8xf7": 2071,
      "R3d7": 2072,
      "R3g5": 2073,
      "R5h4": 2074,
      "R5c3": 2075,
      "R5g3": 2076,
      "R4d6": 2077,
      "R4c3": 2078,
      "R4g2": 2079,
      "R6h5": 2080,
      "R6b3": 2081,
      "R6b7": 2082,
      "R2d6": 2083,
      "R7d5": 2084,
      "R7f4": 2085,
      "R7f2": 2086,
      "N2d4": 2087,
      "Qdf4": 2088,
      "Qde7": 2089,
      "Qdf8": 2090,
      "N8a6": 2091,
      "N8xd7": 2092,
      "N5g4": 2093,
      "N4d5": 2094,
      "N4xe5": 2095,
      "N6c4": 2096,
      "Rfxf8": 2097,
      "Qhe5": 2098,
      "Qaa3": 2099,
      "Raxa3": 2100,
      "Rbxb1": 2101,
      "Nfd6": 2102,
      "Nfxe3": 2103,
      "Nfxe7": 2104,
      "Nfxd6": 2105,
      "Ncxe6": 2106,
      "Rfxd5": 2107,
      "Rfc4": 2108,
      "Rfb3": 2109,
      "Rfxd3": 2110,
      "Rfxc2": 2111,
      "Rea5": 2112,
      "Reb5": 2113,
      "Rexf4": 2114,
      "Rexf2": 2115,
      "Rexb2": 2116,
      "Rad6": 2117,
      "Raf5": 2118,
      "Raf6": 2119,
      "Raxb5": 2120,
      "Rah2": 2121,
      "Rcf4": 2122,
      "Rca3": 2123,
      "Rcb4": 2124,
      "Rca7": 2125,
      "Rcxa7": 2126,
      "Ngh7": 2127,
      "Ngf2": 2128,
      "Ngxf5": 2129,
      "Nba4": 2130,
      "Nbc8": 2131,
      "Qed3": 2132,
      "Qed2": 2133,
      "Qee6": 2134,
      "Qec3": 2135,
      "Qeg3": 2136,
      "Qeg8": 2137,
      "Qef7": 2138,
      "Qcd4": 2139,
      "Rbxe5": 2140,
      "Rbf3": 2141,
      "Rba2": 2142,
      "Rbxa2": 2143,
      "Qgd4": 2144,
      "Qgc4": 2145,
      "Qgg4": 2146,
      "Qgg5": 2147,
      "Qge8": 2148,
      "Qge2": 2149,
      "Qbe5": 2150,
      "Qbd4": 2151,
      "Qbc3": 2152,
      "Qbc1": 2153,
      "Qbc7": 2154,
      "Qbc2": 2155,
      "Nexf7": 2156,
      "Rgd4": 2157,
      "Rgxe5": 2158,
      "Rga8": 2159,
      "Rgc2": 2160,
      "Rgb2": 2161,
      "Rhe4": 2162,
      "Rhd6": 2163,
      "Rhc4": 2164,
      "Rhxg3": 2165,
      "Rhxg7": 2166,
      "Rhxe1": 2167,
      "Rhxf6": 2168,
      "Qfd3": 2169,
      "Qfe2": 2170,
      "Qff1": 2171,
      "Rdh5": 2172,
      "Rda4": 2173,
      "Rdxb6": 2174,
      "Ndc7": 2175,
      "R1xd5": 2176,
      "R1xe4": 2177,
      "R1xc6": 2178,
      "R8h4": 2179,
      "R8a3": 2180,
      "R8xe6": 2181,
      "R8g4": 2182,
      "Nhxf3": 2183,
      "R3g6": 2184,
      "R3h2": 2185,
      "R5h6": 2186,
      "R5c6": 2187,
      "R5a4": 2188,
      "R5c2": 2189,
      "R4a3": 2190,
      "R4b5": 2191,
      "R4g3": 2192,
      "R4c2": 2193,
      "R6c5": 2194,
      "R6a5": 2195,
      "R6e3": 2196,
      "R6h7": 2197,
      "R6f2": 2198,
      "Nab3": 2199,
      "Nab1": 2200,
      "Naxc6": 2201,
      "N7c5": 2202,
      "R2d5": 2203,
      "R2f4": 2204,
      "R2a3": 2205,
      "R2b6": 2206,
      "R2g7": 2207,
      "R7e4": 2208,
      "R7d2": 2209,
      "R7f3": 2210,
      "R7xe6": 2211,
      "R7g5": 2212,
      "R7xb6": 2213,
      "R7c2": 2214,
      "R7b2": 2215,
      "R7xc6": 2216,
      "N2e4": 2217,
      "Raxc3": 2218,
      "Qdd1": 2219,
      "Qdb5": 2220,
      "Qde1": 2221,
      "Qdc7": 2222,
      "N5xd4": 2223,
      "N4c5": 2224,
      "N6xe5": 2225,
      "N6f5": 2226,
      "N3d5": 2227,
      "Qhh5": 2228,
      "Qhc3": 2229,
      "Qhh1": 2230,
      "Qae4": 2231,
      "Qaa5": 2232,
      "Qaa4": 2233,
      "Raxb2": 2234,
      "Nhxg6": 2235,
      "Ndxc3": 2236,
      "Ndxc7": 2237,
      "Rdxc5": 2238,
      "Rdxc6": 2239,
      "Rdxc2": 2240,
      "Nfh3": 2241,
      "Nfd8": 2242,
      "Nfd1": 2243,
      "Nfxh5": 2244,
      "Nfxd3": 2245,
      "Ncd1": 2246,
      "Ncxb6": 2247,
      "Ncxd7": 2248,
      "Rfd5": 2249,
      "Rfc5": 2250,
      "Rfh2": 2251,
      "Rfh7": 2252,
      "Rfxh2": 2253,
      "Rfxc7": 2254,
      "Rfxb1": 2255,
      "Reb3": 2256,
      "Rea7": 2257,
      "Reh7": 2258,
      "Rexe1": 2259,
      "Rexd2": 2260,
      "Rexf5": 2261,
      "Rexc8": 2262,
      "Raxd5": 2263,
      "Rag4": 2264,
      "Raxe7": 2265,
      "Raxd2": 2266,
      "Rcxd5": 2267,
      "Rcxe4": 2268,
      "Rca5": 2269,
      "Rca4": 2270,
      "Rcg6": 2271,
      "Rcg3": 2272,
      "Rcxb6": 2273,
      "Rcxf6": 2274,
      "Rcxf2": 2275,
      "Ngxf4": 2276,
      "Nbd8": 2277,
      "Nbxc7": 2278,
      "Qec4": 2279,
      "Qec5": 2280,
      "Qef6": 2281,
      "Qec6": 2282,
      "Qeg4": 2283,
      "Qeg5": 2284,
      "Qec1": 2285,
      "Qcc5": 2286,
      "Qca4": 2287,
      "Qce1": 2288,
      "Rbe4": 2289,
      "Rbxd4": 2290,
      "Rbe6": 2291,
      "Rbf4": 2292,
      "Rbg6": 2293,
      "Rbh2": 2294,
      "Rbxd7": 2295,
      "Rbxc7": 2296,
      "Rbxa3": 2297,
      "Qge5": 2298,
      "Qgd5": 2299,
      "Qge6": 2300,
      "Qgf3": 2301,
      "Qgd8": 2302,
      "Qge3": 2303,
      "Qbb5": 2304,
      "Qbe8": 2305,
      "Nexg3": 2306,
      "Nec1": 2307,
      "Neg2": 2308,
      "Nexf2": 2309,
      "Rgd5": 2310,
      "Rgc3": 2311,
      "Rgb6": 2312,
      "Rgxe1": 2313,
      "Rgxf2": 2314,
      "Rhd4": 2315,
      "Rhxe6": 2316,
      "Rhxh5": 2317,
      "Rhb7": 2318,
      "Rhxd8": 2319,
      "Rhxc8": 2320,
      "Qfd2": 2321,
      "Qfh6": 2322,
      "Qfh5": 2323,
      "Qfd1": 2324,
      "Qfe3": 2325,
      "Rda6": 2326,
      "Rdg5": 2327,
      "Rdxg4": 2328,
      "Rdxe3": 2329,
      "Rda2": 2330,
      "Rdxh7": 2331,
      "Rdxf6": 2332,
      "Rdxf3": 2333,
      "Rdxf5": 2334,
      "Rdxf2": 2335,
      "Rdxb7": 2336,
      "Ndxf7": 2337,
      "R1h5": 2338,
      "R1h4": 2339,
      "R1b4": 2340,
      "R1g5": 2341,
      "R1xg2": 2342,
      "R8g5": 2343,
      "R8a2": 2344,
      "R8xf3": 2345,
      "Nhg1": 2346,
      "R3xe4": 2347,
      "R3a4": 2348,
      "R3c7": 2349,
      "R3b2": 2350,
      "R5b2": 2351,
      "R5g7": 2352,
      "R5g2": 2353,
      "R4h2": 2354,
      "R4b2": 2355,
      "R4g7": 2356,
      "R4xa6": 2357,
      "R6c3": 2358,
      "Naxc3": 2359,
      "N7xe5": 2360,
      "N7b5": 2361,
      "R2f6": 2362,
      "R2h7": 2363,
      "R2xf3": 2364,
      "R7c5": 2365,
      "R7c3": 2366,
      "N2b4": 2367,
      "Raxc2": 2368,
      "Raxc5": 2369,
      "Qde4": 2370,
      "Qdc4": 2371,
      "Qdf3": 2372,
      "Qdb4": 2373,
      "Qdb1": 2374,
      "Qdf7": 2375,
      "Qdf2": 2376,
      "N6g4": 2377,
      "N6h7": 2378,
      "Qhe4": 2379,
      "Qhd5": 2380,
      "Qhh6": 2381,
      "Qhh3": 2382,
      "Qhf6": 2383,
      "Qhc8": 2384,
      "Qad4": 2385,
      "Qaa6": 2386,
      "Qaa2": 2387,
      "Qag7": 2388,
      "Raxb7": 2389,
      "Q3c4": 2390,
      "Naxb5": 2391,
      "Nhxg4": 2392,
      "Ndxc6": 2393,
      "Naxb3": 2394,
      "Naxb6": 2395,
      "Qhxg7": 2396,
      "Nfh6": 2397,
      "Nfxg6": 2398,
      "Nfxe2": 2399,
      "Nfh7": 2400,
      "Nfxh2": 2401,
      "Ncd8": 2402,
      "Ncxd2": 2403,
      "Ncxa5": 2404,
      "Rfh5": 2405,
      "Rfb5": 2406,
      "Rfxg5": 2407,
      "Rfxg4": 2408,
      "Rfxd7": 2409,
      "Rfxc6": 2410,
      "Rfxb2": 2411,
      "Reh6": 2412,
      "Reh4": 2413,
      "Reb4": 2414,
      "Rexb3": 2415,
      "Reh2": 2416,
      "Rexb8": 2417,
      "Rae4": 2418,
      "Raxe5": 2419,
      "Rah5": 2420,
      "Rae6": 2421,
      "Raxe3": 2422,
      "Raxb4": 2423,
      "Raxf6": 2424,
      "Rcxe5": 2425,
      "Rcf5": 2426,
      "Rcxe3": 2427,
      "Rcxb5": 2428,
      "Rcxg6": 2429,
      "Rcxe2": 2430,
      "Rcxe8": 2431,
      "Rcxd3": 2432,
      "Rcxe1": 2433,
      "Nge1": 2434,
      "Ngxf8": 2435,
      "Nba5": 2436,
      "Nbxd3": 2437,
      "Nbxa4": 2438,
      "Qed6": 2439,
      "Qef3": 2440,
      "Qeb5": 2441,
      "Qexg6": 2442,
      "Qexe2": 2443,
      "Qee8": 2444,
      "Qeg1": 2445,
      "Qeg2": 2446,
      "Qcd6": 2447,
      "Qce6": 2448,
      "Qca5": 2449,
      "Qcc8": 2450,
      "Rbxe4": 2451,
      "Rba3": 2452,
      "Rbg3": 2453,
      "Rbxe3": 2454,
      "Rbxb5": 2455,
      "Rbxe7": 2456,
      "Rbxd6": 2457,
      "Rbxh2": 2458,
      "Rbxd3": 2459,
      "Rbxc6": 2460,
      "Rbxa7": 2461,
      "Qge4": 2462,
      "Qgd7": 2463,
      "Qgxg2": 2464,
      "Qgf1": 2465,
      "Qgf7": 2466,
      "Qbd8": 2467,
      "Qbh7": 2468,
      "Qbe7": 2469,
      "Qbe2": 2470,
      "Qbg8": 2471,
      "Ned1": 2472,
      "Nexg6": 2473,
      "Rga4": 2474,
      "Rgxe6": 2475,
      "Rgxe7": 2476,
      "Rgxe2": 2477,
      "Rgxh6": 2478,
      "Rgxd6": 2479,
      "Rgxd8": 2480,
      "Rgxd2": 2481,
      "Rgxf6": 2482,
      "Rgxc6": 2483,
      "Rhxd5": 2484,
      "Rhb6": 2485,
      "Rhxg6": 2486,
      "Rhxe7": 2487,
      "Qfe4": 2488,
      "Qfd5": 2489,
      "Qfd7": 2490,
      "Qff4": 2491,
      "Qfa3": 2492,
      "Qfb4": 2493,
      "Qfg4": 2494,
      "Qfh2": 2495,
      "Qfh7": 2496,
      "Qfc8": 2497,
      "Qfc1": 2498,
      "Qfxf7": 2499,
      "Rda5": 2500,
      "Rda3": 2501,
      "Rdb5": 2502,
      "Rdb4": 2503,
      "Rdxg5": 2504,
      "Rdxg6": 2505,
      "Rdxg7": 2506,
      "Rdxb3": 2507,
      "Rdh7": 2508,
      "Rdxd1": 2509,
      "Rdxb2": 2510,
      "Nde1": 2511,
      "Ndc8": 2512,
      "Ndc2": 2513,
      "Ndb2": 2514,
      "R1xe5": 2515,
      "R1b5": 2516,
      "R1xf4": 2517,
      "R1xf2": 2518,
      "R1xc5": 2519,
      "R1xc2": 2520,
      "R1xa5": 2521,
      "R8xd4": 2522,
      "R8xe5": 2523,
      "R8h5": 2524,
      "R8a5": 2525,
      "R8b5": 2526,
      "R8xh6": 2527,
      "R8xb3": 2528,
      "R8xd7": 2529,
      "R8xf6": 2530,
      "R8xc3": 2531,
      "R8xa7": 2532,
      "Nhxg7": 2533,
      "R3c5": 2534,
      "R3h6": 2535,
      "R3e6": 2536,
      "R3c6": 2537,
      "R3b4": 2538,
      "R3g4": 2539,
      "R3b6": 2540,
      "R3xe2": 2541,
      "R3h7": 2542,
      "R3f7": 2543,
      "R3g7": 2544,
      "R5c4": 2545,
      "R5g4": 2546,
      "R5b6": 2547,
      "R5h7": 2548,
      "R4xd5": 2549,
      "R4h6": 2550,
      "R4a5": 2551,
      "R4b6": 2552,
      "R4xb5": 2553,
      "R4a2": 2554,
      "R4h7": 2555,
      "R4xf3": 2556,
      "R6xd5": 2557,
      "R6a4": 2558,
      "R6xb5": 2559,
      "R6g2": 2560,
      "Nac1": 2561,
      "R2h6": 2562,
      "R2f5": 2563,
      "R2g4": 2564,
      "R2g5": 2565,
      "R2xe3": 2566,
      "R2e7": 2567,
      "R2c7": 2568,
      "R2xc4": 2569,
      "R2xa3": 2570,
      "R7c4": 2571,
      "R7xd4": 2572,
      "R7xe5": 2573,
      "R7b4": 2574,
      "R7g4": 2575,
      "R7xf6": 2576,
      "R7xa6": 2577,
      "N2c4": 2578,
      "N2f4": 2579,
      "N2xe4": 2580,
      "N2e3": 2581,
      "N2xf3": 2582,
      "Qde6": 2583,
      "Qdf6": 2584,
      "Qdc8": 2585,
      "Qdc2": 2586,
      "N1f2": 2587,
      "N5c4": 2588,
      "N5h4": 2589,
      "N5h3": 2590,
      "N5b4": 2591,
      "N5xf6": 2592,
      "N4d3": 2593,
      "N4h5": 2594,
      "N4f5": 2595,
      "N4a5": 2596,
      "N4g5": 2597,
      "N4e3": 2598,
      "N4xf5": 2599,
      "N6c5": 2600,
      "N3xd4": 2601,
      "N3xe4": 2602,
      "Qhh4": 2603,
      "Qhf3": 2604,
      "Qhc6": 2605,
      "Qhd1": 2606,
      "Qhg4": 2607,
      "Qhg5": 2608,
      "Qhe1": 2609,
      "Qhe8": 2610,
      "Qhf1": 2611,
      "Qhh8": 2612,
      "Qhg1": 2613,
      "Qhg7": 2614,
      "Qaf3": 2615,
      "Qad1": 2616,
      "Qaa1": 2617,
      "Qaa8": 2618,
      "Qab7": 2619,
      "Qab2": 2620,
      "Naxb4": 2621,
      "Nhxg3": 2622,
      "Qdxe5": 2623,
      "Qdxe6": 2624,
      "Nfxg3": 2625,
      "Nfg7": 2626,
      "Nca5": 2627,
      "Nca3": 2628,
      "Nca7": 2629,
      "Ncxe8": 2630,
      "Ncxd8": 2631,
      "Ncxa7": 2632,
      "Ncxb8": 2633,
      "Rfa4": 2634,
      "Rfb6": 2635,
      "Rfxg7": 2636,
      "Rfxg1": 2637,
      "Rfxc4": 2638,
      "Rfxc3": 2639,
      "Reh5": 2640,
      "Rexg6": 2641,
      "Rexg3": 2642,
      "Rexg2": 2643,
      "Rexf7": 2644,
      "Rexc6": 2645,
      "Rexc3": 2646,
      "Rexc5": 2647,
      "Rexc1": 2648,
      "Rexa2": 2649,
      "Rexb7": 2650,
      "Rah4": 2651,
      "Raf4": 2652,
      "Rag6": 2653,
      "Raxe6": 2654,
      "Rag5": 2655,
      "Rag3": 2656,
      "Raxb6": 2657,
      "Raxd6": 2658,
      "Raxd3": 2659,
      "Raxg1": 2660,
      "Raxf2": 2661,
      "Raxf1": 2662,
      "Rcg4": 2663,
      "Rcg5": 2664,
      "Rcxg7": 2665,
      "Rcxg2": 2666,
      "Rch2": 2667,
      "Rcxf3": 2668,
      "Rcxf8": 2669,
      "Rcxb2": 2670,
      "Rcxb7": 2671,
      "Ngxh7": 2672,
      "Nba7": 2673,
      "Nbxc8": 2674,
      "Nbxc2": 2675,
      "Nbxa7": 2676,
      "Qed8": 2677,
      "Qeb4": 2678,
      "Qexf2": 2679,
      "Qce4": 2680,
      "Qcf5": 2681,
      "Qcf6": 2682,
      "Qca6": 2683,
      "Qca3": 2684,
      "Qcg6": 2685,
      "Qcb4": 2686,
      "Qcg5": 2687,
      "Qcb3": 2688,
      "Qcg1": 2689,
      "Qcf7": 2690,
      "Qcb2": 2691,
      "Rbxd5": 2692,
      "Rbf5": 2693,
      "Rbf6": 2694,
      "Rba4": 2695,
      "Rbxe2": 2696,
      "Rbxg2": 2697,
      "Rbxf6": 2698,
      "Rbxf4": 2699,
      "Rbxc4": 2700,
      "Rbxf1": 2701,
      "Rbxc5": 2702,
      "Rbxc2": 2703,
      "Rbxa5": 2704,
      "Rbxa4": 2705,
      "Qgf4": 2706,
      "Qgc6": 2707,
      "Qgxg7": 2708,
      "Qgf2": 2709,
      "Qgxa2": 2710,
      "Qbe4": 2711,
      "Qbd7": 2712,
      "Qbd3": 2713,
      "Qbf5": 2714,
      "Qbd1": 2715,
      "Nec8": 2716,
      "Nef2": 2717,
      "Neg7": 2718,
      "Rgc4": 2719,
      "Rgxe4": 2720,
      "Rgc6": 2721,
      "Rga6": 2722,
      "Rgb3": 2723,
      "Rga1": 2724,
      "Rgxg8": 2725,
      "Rgxg1": 2726,
      "Rgxd7": 2727,
      "Rgxd1": 2728,
      "Rgxf5": 2729,
      "Rgxf1": 2730,
      "Rgxc2": 2731,
      "Rha5": 2732,
      "Rhc3": 2733,
      "Rha3": 2734,
      "Rhxg5": 2735,
      "Rhxg4": 2736,
      "Rhb3": 2737,
      "Rhxe3": 2738,
      "Rhxe2": 2739,
      "Rhxb6": 2740,
      "Rhb2": 2741,
      "Rhxd2": 2742,
      "Qfe5": 2743,
      "Qfc4": 2744,
      "Qfh4": 2745,
      "Qfe8": 2746,
      "Qfxg2": 2747,
      "Qfg7": 2748,
      "Qfg2": 2749,
      "Rdh6": 2750,
      "Rdg4": 2751,
      "Rdxf8": 2752,
      "Rdxb1": 2753,
      "Nde8": 2754,
      "Ndxe8": 2755,
      "Ndc1": 2756,
      "Ndxf1": 2757,
      "R1a4": 2758,
      "R1xe6": 2759,
      "R1xg5": 2760,
      "R1xg4": 2761,
      "R1xb5": 2762,
      "R1xb4": 2763,
      "R1xb6": 2764,
      "R1xf6": 2765,
      "R1xf3": 2766,
      "R1xf5": 2767,
      "R1xa2": 2768,
      "R8xd5": 2769,
      "R8a6": 2770,
      "R8a4": 2771,
      "R8xd3": 2772,
      "R8g2": 2773,
      "R8xf5": 2774,
      "R8xc6": 2775,
      "R8xc5": 2776,
      "R8xa2": 2777,
      "R8xa4": 2778,
      "Nhxf7": 2779,
      "R3e5": 2780,
      "R3xd5": 2781,
      "R3h5": 2782,
      "R3a5": 2783,
      "R3b5": 2784,
      "R3xh4": 2785,
      "R3xd2": 2786,
      "R3xf4": 2787,
      "R3xc4": 2788,
      "R3xc6": 2789,
      "R5xd4": 2790,
      "R5h3": 2791,
      "R5xe4": 2792,
      "R5a3": 2793,
      "R5b4": 2794,
      "R5a2": 2795,
      "R5h2": 2796,
      "R5xd6": 2797,
      "R4h3": 2798,
      "R4a6": 2799,
      "R4g6": 2800,
      "R4xh3": 2801,
      "R4b7": 2802,
      "R4xc3": 2803,
      "R4xc2": 2804,
      "R6xe5": 2805,
      "R6h4": 2806,
      "R6b4": 2807,
      "R6g4": 2808,
      "R6xg4": 2809,
      "R6h2": 2810,
      "R6b2": 2811,
      "R6xd2": 2812,
      "R6xf5": 2813,
      "R6xa3": 2814,
      "Nac8": 2815,
      "N7xd5": 2816,
      "N7g5": 2817,
      "N7xb6": 2818,
      "N7xc6": 2819,
      "N7xc5": 2820,
      "R2xd5": 2821,
      "R2c5": 2822,
      "R2xe5": 2823,
      "R2h5": 2824,
      "R2h4": 2825,
      "R2c6": 2826,
      "R2g6": 2827,
      "R2b5": 2828,
      "R2b4": 2829,
      "R2xe6": 2830,
      "R2xg3": 2831,
      "R2a7": 2832,
      "R2xb3": 2833,
      "R2b7": 2834,
      "R2xf4": 2835,
      "R2xf5": 2836,
      "R2xa5": 2837,
      "R2xa4": 2838,
      "R7h5": 2839,
      "R7h4": 2840,
      "R7a3": 2841,
      "R7b5": 2842,
      "R7xg5": 2843,
      "R7b3": 2844,
      "R7xh5": 2845,
      "R7a2": 2846,
      "R7xd6": 2847,
      "R7xc4": 2848,
      "N2d3": 2849,
      "N2xd4": 2850,
      "N2a3": 2851,
      "N2g4": 2852,
      "N2xg3": 2853,
      "N2xf4": 2854,
      "Qdc5": 2855,
      "Qdg6": 2856,
      "Qdg4": 2857,
      "Qdg5": 2858,
      "Qde8": 2859,
      "Qdh8": 2860,
      "Qdxf7": 2861,
      "N8d6": 2862,
      "N8e6": 2863,
      "N8xe6": 2864,
      "N8b6": 2865,
      "N8xe7": 2866,
      "N8xh6": 2867,
      "N8g7": 2868,
      "N1h3": 2869,
      "N1a3": 2870,
      "N1e3": 2871,
      "N1c2": 2872,
      "N1b2": 2873,
      "N1g2": 2874,
      "N1xd2": 2875,
      "N1xc3": 2876,
      "N5d3": 2877,
      "N5a4": 2878,
      "N4xd5": 2879,
      "N4b5": 2880,
      "N4xh5": 2881,
      "N4xa5": 2882,
      "N6xd5": 2883,
      "N6b5": 2884,
      "N6b4": 2885,
      "N6xg5": 2886,
      "N6xc5": 2887,
      "N6xa5": 2888,
      "N3c4": 2889,
      "N3c5": 2890,
      "N3xe5": 2891,
      "N3b5": 2892,
      "N3g5": 2893,
      "N3f2": 2894,
      "Qhd6": 2895,
      "Qhf4": 2896,
      "Qhf5": 2897,
      "Qhd8": 2898,
      "Qhg6": 2899,
      "Qhe3": 2900,
      "Qhxh5": 2901,
      "Qhf7": 2902,
      "Qhf2": 2903,
      "Qad5": 2904,
      "Qac4": 2905,
      "Qac6": 2906,
      "Qad8": 2907,
      "Qab5": 2908,
      "Qae1": 2909,
      "Qaa7": 2910,
      "Qae2": 2911,
      "Qac8": 2912,
      "Qah8": 2913,
      "Qag1": 2914,
      "Qab8": 2915,
      "Qaf2": 2916,
      "Rcxc8": 2917,
      "Raxa1": 2918,
      "Q1d2": 2919,
      "Q1f4": 2920,
      "Q1e2": 2921,
      "Q1f1": 2922,
      "Q4c6": 2923,
      "Q4c3": 2924,
      "Q4xf6": 2925,
      "Q5e4": 2926,
      "Q8d5": 2927,
      "Q8d7": 2928,
      "Q8h8": 2929,
      "Q8c7": 2930,
      "Q7f6": 2931,
      "Q7e7": 2932,
      "Q6b7": 2933,
      "Q2c3": 2934
    },
    "merges": [
      [
        "x",
        "d"
      ],
      [
        "x",
        "e"
      ],
      [
        "x",
        "f"
      ],
      [
        "N",
        "f"
      ],
      [
        "x",
        "c"
      ],
      [
        "N",
        "c"
      ],
      [
        "e",
        "4"
      ],
      [
        "e",
        "5"
      ],
      [
        "x",
        "g"
      ],
      [
        "d",
        "4"
      ],
      [
        "d",
        "5"
      ],
      [
        "B",
        "e"
      ],
      [
        "x",
        "b"
      ],
      [
        "B",
        "g"
      ],
      [
        "K",
        "f"
      ],
      [
        "d",
        "6"
      ],
      [
        "d",
        "7"
      ],
      [
        "K",
        "g"
      ],
      [
        "d",
        "3"
      ],
      [
        "xd",
        "5"
      ],
      [
        "c",
        "4"
      ],
      [
        "R",
        "f"
      ],
      [
        "R",
        "e"
      ],
      [
        "d",
        "2"
      ],
      [
        "xd",
        "4"
      ],
      [
        "R",
        "a"
      ],
      [
        "c",
        "5"
      ],
      [
        "B",
        "b"
      ],
      [
        "Nf",
        "3"
      ],
      [
        "xe",
        "5"
      ],
      [
        "Nf",
        "6"
      ],
      [
        "h",
        "6"
      ],
      [
        "h",
        "5"
      ],
      [
        "e",
        "6"
      ],
      [
        "h",
        "4"
      ],
      [
        "h",
        "3"
      ],
      [
        "x",
        "a"
      ],
      [
        "f",
        "4"
      ],
      [
        "xe",
        "4"
      ],
      [
        "R",
        "c"
      ],
      [
        "N",
        "g"
      ],
      [
        "N",
        "b"
      ],
      [
        "Nc",
        "3"
      ],
      [
        "Q",
        "e"
      ],
      [
        "Nc",
        "6"
      ],
      [
        "f",
        "5"
      ],
      [
        "Q",
        "c"
      ],
      [
        "R",
        "b"
      ],
      [
        "B",
        "xf"
      ],
      [
        "K",
        "e"
      ],
      [
        "f",
        "6"
      ],
      [
        "K",
        "h"
      ],
      [
        "f",
        "3"
      ],
      [
        "a",
        "5"
      ],
      [
        "c",
        "6"
      ],
      [
        "a",
        "6"
      ],
      [
        "d",
        "8"
      ],
      [
        "d",
        "1"
      ],
      [
        "Q",
        "g"
      ],
      [
        "Q",
        "b"
      ],
      [
        "a",
        "4"
      ],
      [
        "c",
        "3"
      ],
      [
        "N",
        "e"
      ],
      [
        "R",
        "g"
      ],
      [
        "K",
        "b"
      ],
      [
        "a",
        "3"
      ],
      [
        "B",
        "xc"
      ],
      [
        "g",
        "6"
      ],
      [
        "b",
        "5"
      ],
      [
        "R",
        "xf"
      ],
      [
        "Q",
        "xf"
      ],
      [
        "Be",
        "7"
      ],
      [
        "b",
        "4"
      ],
      [
        "R",
        "h"
      ],
      [
        "N",
        "xf"
      ],
      [
        "B",
        "d3"
      ],
      [
        "xe",
        "6"
      ],
      [
        "b",
        "xc"
      ],
      [
        "g",
        "4"
      ],
      [
        "R",
        "xd"
      ],
      [
        "N",
        "xc"
      ],
      [
        "g",
        "5"
      ],
      [
        "N",
        "e5"
      ],
      [
        "Be",
        "3"
      ],
      [
        "g",
        "3"
      ],
      [
        "Bg",
        "5"
      ],
      [
        "xg",
        "5"
      ],
      [
        "Re",
        "1"
      ],
      [
        "R",
        "xc"
      ],
      [
        "Q",
        "xd"
      ],
      [
        "N",
        "e4"
      ],
      [
        "e",
        "xd5"
      ],
      [
        "B",
        "c4"
      ],
      [
        "e",
        "3"
      ],
      [
        "Q",
        "xc"
      ],
      [
        "Be",
        "2"
      ],
      [
        "b",
        "6"
      ],
      [
        "xg",
        "4"
      ],
      [
        "d",
        "xc"
      ],
      [
        "K",
        "c"
      ],
      [
        "b",
        "3"
      ],
      [
        "c",
        "xd4"
      ],
      [
        "N",
        "d5"
      ],
      [
        "x",
        "h"
      ],
      [
        "Re",
        "8"
      ],
      [
        "xe",
        "3"
      ],
      [
        "xb",
        "5"
      ],
      [
        "e",
        "xf"
      ],
      [
        "g",
        "xf"
      ],
      [
        "Bg",
        "4"
      ],
      [
        "N",
        "xe5"
      ],
      [
        "xg",
        "6"
      ],
      [
        "B",
        "d6"
      ],
      [
        "R",
        "xa"
      ],
      [
        "Bg",
        "7"
      ],
      [
        "N",
        "xd4"
      ],
      [
        "d",
        "xe5"
      ],
      [
        "xb",
        "4"
      ],
      [
        "B",
        "xd"
      ],
      [
        "Qe",
        "2"
      ],
      [
        "Be",
        "6"
      ],
      [
        "B",
        "d7"
      ],
      [
        "N",
        "d4"
      ],
      [
        "xe",
        "7"
      ],
      [
        "N",
        "d7"
      ],
      [
        "N",
        "xe4"
      ],
      [
        "c",
        "xd5"
      ],
      [
        "B",
        "f4"
      ],
      [
        "Q",
        "d2"
      ],
      [
        "Bb",
        "7"
      ],
      [
        "Qc",
        "7"
      ],
      [
        "Qe",
        "7"
      ],
      [
        "Q",
        "f"
      ],
      [
        "Bb",
        "5"
      ],
      [
        "xg",
        "3"
      ],
      [
        "Kg",
        "7"
      ],
      [
        "N",
        "xd"
      ],
      [
        "B",
        "c5"
      ],
      [
        "N",
        "xd5"
      ],
      [
        "N",
        "d2"
      ],
      [
        "Kg",
        "2"
      ],
      [
        "Bxf",
        "6"
      ],
      [
        "Ne",
        "7"
      ],
      [
        "Rc",
        "8"
      ],
      [
        "B",
        "d2"
      ],
      [
        "B",
        "f5"
      ],
      [
        "Kf",
        "7"
      ],
      [
        "B",
        "c"
      ],
      [
        "Q",
        "f3"
      ],
      [
        "Bb",
        "4"
      ],
      [
        "e",
        "1"
      ],
      [
        "Kf",
        "2"
      ],
      [
        "R",
        "d1"
      ],
      [
        "R",
        "d8"
      ],
      [
        "R",
        "xb"
      ],
      [
        "xg",
        "7"
      ],
      [
        "Ke",
        "7"
      ],
      [
        "Q",
        "d7"
      ],
      [
        "Qc",
        "2"
      ],
      [
        "Rc",
        "1"
      ],
      [
        "e",
        "xd4"
      ],
      [
        "xe",
        "2"
      ],
      [
        "K",
        "xf"
      ],
      [
        "Bxf",
        "3"
      ],
      [
        "Ne",
        "2"
      ],
      [
        "Ng",
        "5"
      ],
      [
        "Q",
        "xa"
      ],
      [
        "Ke",
        "2"
      ],
      [
        "d",
        "xe4"
      ],
      [
        "Bg",
        "2"
      ],
      [
        "e",
        "8"
      ],
      [
        "Q",
        "f6"
      ],
      [
        "Nf",
        "5"
      ],
      [
        "Q",
        "xb"
      ],
      [
        "Kh",
        "1"
      ],
      [
        "Rb",
        "8"
      ],
      [
        "Qb",
        "6"
      ],
      [
        "Kf",
        "8"
      ],
      [
        "Kh",
        "8"
      ],
      [
        "x",
        "h6"
      ],
      [
        "B",
        "f"
      ],
      [
        "Kf",
        "6"
      ],
      [
        "xg",
        "2"
      ],
      [
        "Q",
        "d3"
      ],
      [
        "Bb",
        "2"
      ],
      [
        "Nf",
        "4"
      ],
      [
        "Nc",
        "5"
      ],
      [
        "Kf",
        "3"
      ],
      [
        "Ng",
        "4"
      ],
      [
        "Rb",
        "1"
      ],
      [
        "B",
        "xa"
      ],
      [
        "Kh",
        "2"
      ],
      [
        "Ke",
        "3"
      ],
      [
        "K",
        "d7"
      ],
      [
        "Kf",
        "1"
      ],
      [
        "Nc",
        "4"
      ],
      [
        "B",
        "xe5"
      ],
      [
        "Kg",
        "3"
      ],
      [
        "Rf",
        "8"
      ],
      [
        "x",
        "h5"
      ],
      [
        "Kh",
        "7"
      ],
      [
        "Nb",
        "d7"
      ],
      [
        "Rf",
        "1"
      ],
      [
        "Bxc",
        "6"
      ],
      [
        "Q",
        "xd5"
      ],
      [
        "x",
        "h4"
      ],
      [
        "K",
        "d2"
      ],
      [
        "Kg",
        "6"
      ],
      [
        "Q",
        "xd4"
      ],
      [
        "K",
        "e6"
      ],
      [
        "Kg",
        "8"
      ],
      [
        "R",
        "xe"
      ],
      [
        "B",
        "xe4"
      ],
      [
        "x",
        "h3"
      ],
      [
        "Qb",
        "3"
      ],
      [
        "Q",
        "d6"
      ],
      [
        "Bxc",
        "3"
      ],
      [
        "f",
        "xe5"
      ],
      [
        "Q",
        "h5"
      ],
      [
        "Qe",
        "3"
      ],
      [
        "Ra",
        "c"
      ],
      [
        "Qg",
        "4"
      ],
      [
        "B",
        "xb"
      ],
      [
        "R",
        "d2"
      ],
      [
        "R",
        "d7"
      ],
      [
        "Nb",
        "d2"
      ],
      [
        "B",
        "xd5"
      ],
      [
        "Qg",
        "5"
      ],
      [
        "K",
        "d3"
      ],
      [
        "B",
        "f6"
      ],
      [
        "K",
        "d6"
      ],
      [
        "bxc",
        "3"
      ],
      [
        "Bb",
        "3"
      ],
      [
        "Re",
        "2"
      ],
      [
        "Rg",
        "8"
      ],
      [
        "Ng",
        "6"
      ],
      [
        "Kg",
        "1"
      ],
      [
        "R",
        "d"
      ],
      [
        "Qg",
        "3"
      ],
      [
        "a",
        "2"
      ],
      [
        "Q",
        "a5"
      ],
      [
        "Q",
        "h4"
      ],
      [
        "B",
        "xd4"
      ],
      [
        "Re",
        "7"
      ],
      [
        "bxc",
        "6"
      ],
      [
        "Kf",
        "4"
      ],
      [
        "Rg",
        "1"
      ],
      [
        "dxc",
        "4"
      ],
      [
        "Kf",
        "5"
      ],
      [
        "Ng",
        "3"
      ],
      [
        "Ra",
        "d1"
      ],
      [
        "xh",
        "7"
      ],
      [
        "B",
        "d4"
      ],
      [
        "K",
        "xd"
      ],
      [
        "Q",
        "e6"
      ],
      [
        "a",
        "7"
      ],
      [
        "Nb",
        "5"
      ],
      [
        "B",
        "f3"
      ],
      [
        "Nb",
        "6"
      ],
      [
        "K",
        "e5"
      ],
      [
        "K",
        "e4"
      ],
      [
        "xb",
        "3"
      ],
      [
        "Nb",
        "4"
      ],
      [
        "B",
        "e4"
      ],
      [
        "Q",
        "f4"
      ],
      [
        "B",
        "d5"
      ],
      [
        "h",
        "2"
      ],
      [
        "Kc",
        "7"
      ],
      [
        "dxc",
        "5"
      ],
      [
        "Q",
        "d5"
      ],
      [
        "Qxf",
        "3"
      ],
      [
        "N",
        "d6"
      ],
      [
        "Nxf",
        "6"
      ],
      [
        "Q",
        "e4"
      ],
      [
        "Q",
        "d4"
      ],
      [
        "Rc",
        "7"
      ],
      [
        "N",
        "xa"
      ],
      [
        "N",
        "h5"
      ],
      [
        "h",
        "7"
      ],
      [
        "Bxc",
        "4"
      ],
      [
        "Qg",
        "6"
      ],
      [
        "Kg",
        "4"
      ],
      [
        "Kc",
        "2"
      ],
      [
        "Q",
        "e5"
      ],
      [
        "Ne",
        "3"
      ],
      [
        "Rf",
        "2"
      ],
      [
        "Rf",
        "7"
      ],
      [
        "Kg",
        "5"
      ],
      [
        "Rc",
        "2"
      ],
      [
        "Q",
        "f5"
      ],
      [
        "K",
        "d4"
      ],
      [
        "Q",
        "d8"
      ],
      [
        "B",
        "e5"
      ],
      [
        "B",
        "c6"
      ],
      [
        "e",
        "7"
      ],
      [
        "f",
        "xe4"
      ],
      [
        "Bg",
        "3"
      ],
      [
        "exf",
        "5"
      ],
      [
        "Nxc",
        "6"
      ],
      [
        "N",
        "d3"
      ],
      [
        "K",
        "c6"
      ],
      [
        "b",
        "xa"
      ],
      [
        "Q",
        "xe5"
      ],
      [
        "Qxf",
        "6"
      ],
      [
        "Ra",
        "d8"
      ],
      [
        "Rxd",
        "8"
      ],
      [
        "B",
        "h4"
      ],
      [
        "B",
        "h6"
      ],
      [
        "N",
        "e6"
      ],
      [
        "K",
        "d5"
      ],
      [
        "xb",
        "6"
      ],
      [
        "N",
        "h4"
      ],
      [
        "Bg",
        "6"
      ],
      [
        "K",
        "c3"
      ],
      [
        "Q",
        "xe4"
      ],
      [
        "Rxd",
        "1"
      ],
      [
        "xd",
        "6"
      ],
      [
        "h",
        "xg5"
      ],
      [
        "a",
        "xb5"
      ],
      [
        "Q",
        "a4"
      ],
      [
        "Bxc",
        "5"
      ],
      [
        "Qc",
        "6"
      ],
      [
        "Kb",
        "1"
      ],
      [
        "Ra",
        "8"
      ],
      [
        "Nxf",
        "3"
      ],
      [
        "xh",
        "2"
      ],
      [
        "a",
        "xb4"
      ],
      [
        "Re",
        "3"
      ],
      [
        "Bxf",
        "4"
      ],
      [
        "exf",
        "4"
      ],
      [
        "e",
        "2"
      ],
      [
        "Ra",
        "1"
      ],
      [
        "Ke",
        "8"
      ],
      [
        "Bxf",
        "5"
      ],
      [
        "h",
        "xg4"
      ],
      [
        "Qc",
        "3"
      ],
      [
        "Nb",
        "3"
      ],
      [
        "K",
        "c5"
      ],
      [
        "K",
        "d8"
      ],
      [
        "Rf",
        "3"
      ],
      [
        "Q",
        "d1"
      ],
      [
        "R",
        "d3"
      ],
      [
        "Nxc",
        "3"
      ],
      [
        "B",
        "c3"
      ],
      [
        "B",
        "a6"
      ],
      [
        "K",
        "c4"
      ],
      [
        "Bb",
        "6"
      ],
      [
        "f",
        "xe6"
      ],
      [
        "Q",
        "c5"
      ],
      [
        "gxf",
        "6"
      ],
      [
        "Kb",
        "8"
      ],
      [
        "B",
        "h5"
      ],
      [
        "Rf",
        "e1"
      ],
      [
        "Qf",
        "2"
      ],
      [
        "Ra",
        "b"
      ],
      [
        "gxf",
        "3"
      ],
      [
        "B",
        "xe6"
      ],
      [
        "N",
        "a5"
      ],
      [
        "K",
        "xc"
      ],
      [
        "R",
        "d6"
      ],
      [
        "a",
        "1"
      ],
      [
        "K",
        "h6"
      ],
      [
        "a",
        "8"
      ],
      [
        "Qf",
        "7"
      ],
      [
        "h",
        "xg6"
      ],
      [
        "K",
        "h3"
      ],
      [
        "Qxd",
        "6"
      ],
      [
        "Qxd",
        "3"
      ],
      [
        "Q",
        "c4"
      ],
      [
        "Bc",
        "2"
      ],
      [
        "Kb",
        "6"
      ],
      [
        "bxc",
        "4"
      ],
      [
        "Rh",
        "8"
      ],
      [
        "Re",
        "6"
      ],
      [
        "Qe",
        "1"
      ],
      [
        "Rxe",
        "8"
      ],
      [
        "R",
        "xe5"
      ],
      [
        "bxc",
        "5"
      ],
      [
        "gxf",
        "5"
      ],
      [
        "Qe",
        "8"
      ],
      [
        "Rh",
        "1"
      ],
      [
        "K",
        "d1"
      ],
      [
        "Rf",
        "6"
      ],
      [
        "Rf",
        "e8"
      ],
      [
        "Ra",
        "7"
      ],
      [
        "Ke",
        "1"
      ],
      [
        "Q",
        "xe7"
      ],
      [
        "Qb",
        "4"
      ],
      [
        "Bxd",
        "6"
      ],
      [
        "Rxe",
        "1"
      ],
      [
        "B",
        "xg5"
      ],
      [
        "N",
        "a4"
      ],
      [
        "exf",
        "6"
      ],
      [
        "Kb",
        "3"
      ],
      [
        "Rb",
        "7"
      ],
      [
        "Rac",
        "8"
      ],
      [
        "Ra",
        "2"
      ],
      [
        "Qb",
        "5"
      ],
      [
        "Rb",
        "2"
      ],
      [
        "Rxf",
        "7"
      ],
      [
        "Rac",
        "1"
      ],
      [
        "R",
        "e4"
      ],
      [
        "Kb",
        "7"
      ],
      [
        "N",
        "h6"
      ],
      [
        "B",
        "xe7"
      ],
      [
        "R",
        "xe4"
      ],
      [
        "Q",
        "h3"
      ],
      [
        "Qc",
        "8"
      ],
      [
        "Nxc",
        "4"
      ],
      [
        "Kb",
        "2"
      ],
      [
        "Rg",
        "3"
      ],
      [
        "B",
        "h3"
      ],
      [
        "R",
        "d4"
      ],
      [
        "Rc",
        "6"
      ],
      [
        "f",
        "1"
      ],
      [
        "Q",
        "xe6"
      ],
      [
        "Ra",
        "e1"
      ],
      [
        "Rc",
        "3"
      ],
      [
        "R",
        "e5"
      ],
      [
        "Kb",
        "4"
      ],
      [
        "Kb",
        "5"
      ],
      [
        "R",
        "xd4"
      ],
      [
        "R",
        "xd5"
      ],
      [
        "c",
        "8"
      ],
      [
        "R",
        "d5"
      ],
      [
        "gxf",
        "4"
      ],
      [
        "N",
        "xe6"
      ],
      [
        "xh",
        "8"
      ],
      [
        "Q",
        "h6"
      ],
      [
        "Bxd",
        "3"
      ],
      [
        "f",
        "8"
      ],
      [
        "Rf",
        "4"
      ],
      [
        "B",
        "a3"
      ],
      [
        "Q",
        "xg5"
      ],
      [
        "Rxf",
        "2"
      ],
      [
        "N",
        "a6"
      ],
      [
        "Qxc",
        "3"
      ],
      [
        "Nxc",
        "5"
      ],
      [
        "R",
        "xe6"
      ],
      [
        "Q",
        "xe3"
      ],
      [
        "Qxb",
        "2"
      ],
      [
        "Rxb",
        "2"
      ],
      [
        "xe",
        "8"
      ],
      [
        "xd",
        "3"
      ],
      [
        "Qxc",
        "6"
      ],
      [
        "Nc",
        "7"
      ],
      [
        "f",
        "xg6"
      ],
      [
        "Rf",
        "5"
      ],
      [
        "B",
        "xe3"
      ],
      [
        "Kc",
        "8"
      ],
      [
        "Qc",
        "1"
      ],
      [
        "Rxf",
        "8"
      ],
      [
        "Rb",
        "3"
      ],
      [
        "c",
        "1"
      ],
      [
        "Rf",
        "d1"
      ],
      [
        "Rf",
        "d8"
      ],
      [
        "Qxc",
        "4"
      ],
      [
        "N",
        "xe3"
      ],
      [
        "f",
        "xe3"
      ],
      [
        "Rxf",
        "6"
      ],
      [
        "xe",
        "1"
      ],
      [
        "Rxd",
        "6"
      ],
      [
        "Qb",
        "7"
      ],
      [
        "B",
        "xg4"
      ],
      [
        "Qxf",
        "4"
      ],
      [
        "R",
        "c4"
      ],
      [
        "Rg",
        "2"
      ],
      [
        "Rg",
        "7"
      ],
      [
        "Ra",
        "e8"
      ],
      [
        "Qxd",
        "7"
      ],
      [
        "N",
        "a3"
      ],
      [
        "h",
        "xg3"
      ],
      [
        "Bxd",
        "7"
      ],
      [
        "Q",
        "xe2"
      ],
      [
        "Qg",
        "7"
      ],
      [
        "h",
        "8"
      ],
      [
        "Qxb",
        "7"
      ],
      [
        "B",
        "xg7"
      ],
      [
        "Rb",
        "6"
      ],
      [
        "Rg",
        "6"
      ],
      [
        "K",
        "h4"
      ],
      [
        "Ra",
        "3"
      ],
      [
        "Rxf",
        "3"
      ],
      [
        "Rxb",
        "7"
      ],
      [
        "c",
        "xb5"
      ],
      [
        "R",
        "c5"
      ],
      [
        "Rxf",
        "4"
      ],
      [
        "Rxf",
        "1"
      ],
      [
        "K",
        "xg7"
      ],
      [
        "Qxc",
        "5"
      ],
      [
        "Q",
        "xg4"
      ],
      [
        "N",
        "h3"
      ],
      [
        "N",
        "d"
      ],
      [
        "R",
        "xe7"
      ],
      [
        "Nxf",
        "4"
      ],
      [
        "Nxf",
        "5"
      ],
      [
        "Nxd",
        "3"
      ],
      [
        "K",
        "h5"
      ],
      [
        "Nxd",
        "7"
      ],
      [
        "B",
        "a4"
      ],
      [
        "dxc",
        "6"
      ],
      [
        "Nc",
        "2"
      ],
      [
        "Nxd",
        "6"
      ],
      [
        "Kc",
        "1"
      ],
      [
        "B",
        "xb5"
      ],
      [
        "Ng",
        "e7"
      ],
      [
        "a",
        "xb3"
      ],
      [
        "Bc",
        "7"
      ],
      [
        "Ra",
        "6"
      ],
      [
        "Rh",
        "2"
      ],
      [
        "Qxd",
        "2"
      ],
      [
        "B",
        "xh6"
      ],
      [
        "R",
        "xe3"
      ],
      [
        "N",
        "xg5"
      ],
      [
        "Rxa",
        "2"
      ],
      [
        "K",
        "xa"
      ],
      [
        "R",
        "h3"
      ],
      [
        "Rxf",
        "5"
      ],
      [
        "Rh",
        "7"
      ],
      [
        "Rxd",
        "3"
      ],
      [
        "e",
        "xd6"
      ],
      [
        "Qxd",
        "8"
      ],
      [
        "Qb",
        "2"
      ],
      [
        "Bxd",
        "2"
      ],
      [
        "Bf",
        "8"
      ],
      [
        "Rxc",
        "3"
      ],
      [
        "Qxf",
        "7"
      ],
      [
        "Rxd",
        "7"
      ],
      [
        "Qxf",
        "5"
      ],
      [
        "Rxc",
        "8"
      ],
      [
        "Rxa",
        "7"
      ],
      [
        "B",
        "xe2"
      ],
      [
        "h",
        "1"
      ],
      [
        "Qg",
        "2"
      ],
      [
        "Nf",
        "7"
      ],
      [
        "xh",
        "1"
      ],
      [
        "Rxd",
        "2"
      ],
      [
        "Bxf",
        "7"
      ],
      [
        "Kxf",
        "7"
      ],
      [
        "Bc",
        "8"
      ],
      [
        "Rxc",
        "1"
      ],
      [
        "Rg",
        "4"
      ],
      [
        "Rxc",
        "2"
      ],
      [
        "N",
        "xe7"
      ],
      [
        "Qxd",
        "1"
      ],
      [
        "N",
        "xg4"
      ],
      [
        "Bf",
        "2"
      ],
      [
        "Rg",
        "5"
      ],
      [
        "c",
        "xb4"
      ],
      [
        "f",
        "xg5"
      ],
      [
        "R",
        "h6"
      ],
      [
        "Ra",
        "5"
      ],
      [
        "N",
        "xb"
      ],
      [
        "Rb",
        "4"
      ],
      [
        "Ra",
        "4"
      ],
      [
        "g",
        "1"
      ],
      [
        "a",
        "xb6"
      ],
      [
        "Rxc",
        "6"
      ],
      [
        "f",
        "xg3"
      ],
      [
        "Rb",
        "5"
      ],
      [
        "R",
        "xe2"
      ],
      [
        "c",
        "xd6"
      ],
      [
        "g",
        "8"
      ],
      [
        "B",
        "xb4"
      ],
      [
        "Rxc",
        "7"
      ],
      [
        "Nf",
        "2"
      ],
      [
        "Qxf",
        "2"
      ],
      [
        "Bf",
        "1"
      ],
      [
        "f",
        "xg4"
      ],
      [
        "R",
        "h4"
      ],
      [
        "Rxc",
        "5"
      ],
      [
        "Rab",
        "1"
      ],
      [
        "xg",
        "8"
      ],
      [
        "Rxc",
        "4"
      ],
      [
        "dxc",
        "3"
      ],
      [
        "R",
        "h5"
      ],
      [
        "Ng",
        "e2"
      ],
      [
        "Bxb",
        "2"
      ],
      [
        "Nxd",
        "2"
      ],
      [
        "Bc",
        "1"
      ],
      [
        "Q",
        "xg7"
      ],
      [
        "Qf",
        "8"
      ],
      [
        "Nxf",
        "7"
      ],
      [
        "B",
        "a5"
      ],
      [
        "Q",
        "xg6"
      ],
      [
        "R",
        "xg2"
      ],
      [
        "R",
        "xg7"
      ],
      [
        "Qb",
        "8"
      ],
      [
        "Bxb",
        "7"
      ],
      [
        "Q",
        "xg2"
      ],
      [
        "Rab",
        "8"
      ],
      [
        "g",
        "xh5"
      ],
      [
        "c",
        "xd3"
      ],
      [
        "Q",
        "a3"
      ],
      [
        "N",
        "xg6"
      ],
      [
        "B",
        "xg6"
      ],
      [
        "N",
        "h2"
      ],
      [
        "Qxc",
        "2"
      ],
      [
        "B",
        "xg2"
      ],
      [
        "d",
        "xe6"
      ],
      [
        "Qf",
        "1"
      ],
      [
        "B",
        "xh3"
      ],
      [
        "N",
        "xb5"
      ],
      [
        "K",
        "xg2"
      ],
      [
        "Q",
        "xb5"
      ],
      [
        "exf",
        "3"
      ],
      [
        "Rxa",
        "6"
      ],
      [
        "Ne",
        "8"
      ],
      [
        "Q",
        "a6"
      ],
      [
        "Qxc",
        "7"
      ],
      [
        "Bf",
        "7"
      ],
      [
        "Qb",
        "1"
      ],
      [
        "N",
        "xe2"
      ],
      [
        "Nf",
        "8"
      ],
      [
        "b",
        "8"
      ],
      [
        "Bxa",
        "6"
      ],
      [
        "N",
        "xg3"
      ],
      [
        "b",
        "1"
      ],
      [
        "Qxa",
        "2"
      ],
      [
        "Q",
        "xh6"
      ],
      [
        "Rxa",
        "3"
      ],
      [
        "c",
        "7"
      ],
      [
        "g",
        "xh6"
      ],
      [
        "Bxf",
        "2"
      ],
      [
        "Q",
        "xh4"
      ],
      [
        "R",
        "xh7"
      ],
      [
        "xg",
        "1"
      ],
      [
        "Q",
        "xg3"
      ],
      [
        "Kxf",
        "2"
      ],
      [
        "Nf",
        "1"
      ],
      [
        "B",
        "xg3"
      ],
      [
        "K",
        "a3"
      ],
      [
        "Rxa",
        "1"
      ],
      [
        "Rxa",
        "4"
      ],
      [
        "Qxa",
        "7"
      ],
      [
        "K",
        "a6"
      ],
      [
        "Q",
        "xh5"
      ],
      [
        "K",
        "a5"
      ],
      [
        "Q",
        "xb4"
      ],
      [
        "B",
        "a2"
      ],
      [
        "g",
        "xh4"
      ],
      [
        "N",
        "h7"
      ],
      [
        "Rxa",
        "5"
      ],
      [
        "Ng",
        "f6"
      ],
      [
        "Q",
        "xh7"
      ],
      [
        "Be",
        "8"
      ],
      [
        "K",
        "a4"
      ],
      [
        "c",
        "2"
      ],
      [
        "Q",
        "h7"
      ],
      [
        "N",
        "xb4"
      ],
      [
        "K",
        "a2"
      ],
      [
        "f",
        "7"
      ],
      [
        "bxa",
        "4"
      ],
      [
        "Q",
        "xh3"
      ],
      [
        "K",
        "a7"
      ],
      [
        "f",
        "2"
      ],
      [
        "R",
        "xh5"
      ],
      [
        "Rxa",
        "8"
      ],
      [
        "Rf",
        "c8"
      ],
      [
        "R",
        "xb4"
      ],
      [
        "R",
        "xb5"
      ],
      [
        "R",
        "xg5"
      ],
      [
        "R",
        "xg6"
      ],
      [
        "R",
        "xh6"
      ],
      [
        "Rxb",
        "3"
      ],
      [
        "N",
        "xb3"
      ],
      [
        "Kxd",
        "8"
      ],
      [
        "Nxf",
        "2"
      ],
      [
        "R",
        "xh2"
      ],
      [
        "Q",
        "h2"
      ],
      [
        "R",
        "xg3"
      ],
      [
        "R",
        "xh3"
      ],
      [
        "Ne",
        "1"
      ],
      [
        "R",
        "xh4"
      ],
      [
        "Bxf",
        "8"
      ],
      [
        "R",
        "xg4"
      ],
      [
        "Qxb",
        "6"
      ],
      [
        "g",
        "xh3"
      ],
      [
        "Nxc",
        "7"
      ],
      [
        "bxa",
        "5"
      ],
      [
        "Rxb",
        "6"
      ],
      [
        "Qxb",
        "3"
      ],
      [
        "K",
        "xb"
      ],
      [
        "b",
        "7"
      ],
      [
        "B",
        "d8"
      ],
      [
        "b",
        "2"
      ],
      [
        "Nxc",
        "2"
      ],
      [
        "Bxa",
        "3"
      ],
      [
        "B",
        "d1"
      ],
      [
        "Q",
        "a1"
      ],
      [
        "Q",
        "a8"
      ],
      [
        "Rh",
        "e1"
      ],
      [
        "Kxf",
        "8"
      ],
      [
        "Bb",
        "1"
      ],
      [
        "Qxa",
        "8"
      ],
      [
        "Bxf",
        "1"
      ],
      [
        "Rxb",
        "8"
      ],
      [
        "Be",
        "1"
      ],
      [
        "Q",
        "h8"
      ],
      [
        "Q",
        "xe8"
      ],
      [
        "Nf",
        "d7"
      ],
      [
        "c",
        "xb3"
      ],
      [
        "Q",
        "a7"
      ],
      [
        "Rf",
        "c1"
      ],
      [
        "K",
        "a1"
      ],
      [
        "Q",
        "xe1"
      ],
      [
        "Qxf",
        "8"
      ],
      [
        "Bxd",
        "8"
      ],
      [
        "Nb",
        "8"
      ],
      [
        "K",
        "a8"
      ],
      [
        "B",
        "xh4"
      ],
      [
        "N",
        "xh4"
      ],
      [
        "N",
        "xb6"
      ],
      [
        "R",
        "1"
      ],
      [
        "Bxc",
        "2"
      ],
      [
        "Kxf",
        "1"
      ],
      [
        "Rxb",
        "1"
      ],
      [
        "g",
        "7"
      ],
      [
        "Bxb",
        "6"
      ],
      [
        "Qxa",
        "1"
      ],
      [
        "Qxa",
        "6"
      ],
      [
        "Q",
        "a2"
      ],
      [
        "R",
        "8"
      ],
      [
        "Rh",
        "e8"
      ],
      [
        "Bxa",
        "1"
      ],
      [
        "K",
        "xe7"
      ],
      [
        "Qxa",
        "3"
      ],
      [
        "c",
        "xb6"
      ],
      [
        "Q",
        "xh2"
      ],
      [
        "Bxc",
        "7"
      ],
      [
        "Bxa",
        "8"
      ],
      [
        "g",
        "2"
      ],
      [
        "N",
        "xh5"
      ],
      [
        "Kxd",
        "1"
      ],
      [
        "Kxf",
        "6"
      ],
      [
        "Kxd",
        "7"
      ],
      [
        "bxa",
        "3"
      ],
      [
        "Q",
        "h1"
      ],
      [
        "B",
        "xh7"
      ],
      [
        "B",
        "xh5"
      ],
      [
        "Qxa",
        "4"
      ],
      [
        "Qg",
        "8"
      ],
      [
        "Qg",
        "1"
      ],
      [
        "Qxa",
        "5"
      ],
      [
        "B",
        "h2"
      ],
      [
        "Ng",
        "8"
      ],
      [
        "N",
        "d1"
      ],
      [
        "Kxf",
        "3"
      ],
      [
        "Ng",
        "f3"
      ],
      [
        "bxa",
        "6"
      ],
      [
        "Bxb",
        "3"
      ],
      [
        "Kxd",
        "2"
      ],
      [
        "Kxf",
        "4"
      ],
      [
        "Bxd",
        "1"
      ],
      [
        "e",
        "xd3"
      ],
      [
        "Nc",
        "8"
      ],
      [
        "N",
        "d8"
      ],
      [
        "Nxf",
        "8"
      ],
      [
        "Ra",
        "f1"
      ],
      [
        "Rd",
        "e1"
      ],
      [
        "B",
        "h7"
      ],
      [
        "Qxf",
        "1"
      ],
      [
        "Kxf",
        "5"
      ],
      [
        "Nxf",
        "1"
      ],
      [
        "K",
        "xh7"
      ],
      [
        "K",
        "xg5"
      ],
      [
        "d",
        "xe3"
      ],
      [
        "Nxb",
        "7"
      ],
      [
        "Nb",
        "1"
      ],
      [
        "K",
        "xe5"
      ],
      [
        "Nxd",
        "1"
      ],
      [
        "R",
        "xh8"
      ],
      [
        "Nxd",
        "8"
      ],
      [
        "K",
        "xe2"
      ],
      [
        "Nxb",
        "2"
      ],
      [
        "B",
        "a7"
      ],
      [
        "Ra",
        "f8"
      ],
      [
        "K",
        "xe6"
      ],
      [
        "Bxa",
        "7"
      ],
      [
        "Nxa",
        "8"
      ],
      [
        "Qxc",
        "1"
      ],
      [
        "R",
        "xg8"
      ],
      [
        "Qxc",
        "8"
      ],
      [
        "Ng",
        "7"
      ],
      [
        "K",
        "xg4"
      ],
      [
        "K",
        "xg6"
      ],
      [
        "R",
        "xh1"
      ],
      [
        "K",
        "xg3"
      ],
      [
        "Nb",
        "7"
      ],
      [
        "Rh",
        "g1"
      ],
      [
        "N",
        "xg7"
      ],
      [
        "Bxa",
        "2"
      ],
      [
        "K",
        "xe4"
      ],
      [
        "Ng",
        "1"
      ],
      [
        "B",
        "xh2"
      ],
      [
        "Nb",
        "c6"
      ],
      [
        "Ng",
        "2"
      ],
      [
        "Bxa",
        "4"
      ],
      [
        "Rd",
        "e8"
      ],
      [
        "Rh",
        "g8"
      ],
      [
        "Kxc",
        "5"
      ],
      [
        "N",
        "xh6"
      ],
      [
        "K",
        "xh5"
      ],
      [
        "Rh",
        "f8"
      ],
      [
        "Q",
        "xh8"
      ],
      [
        "Nc",
        "1"
      ],
      [
        "K",
        "xe3"
      ],
      [
        "K",
        "xh4"
      ],
      [
        "K",
        "xh2"
      ],
      [
        "Bxa",
        "5"
      ],
      [
        "Nxa",
        "1"
      ],
      [
        "Nxc",
        "8"
      ],
      [
        "Kxc",
        "4"
      ],
      [
        "Bb",
        "8"
      ],
      [
        "Nxa",
        "4"
      ],
      [
        "K",
        "xd5"
      ],
      [
        "Rh",
        "d1"
      ],
      [
        "Re",
        "d1"
      ],
      [
        "Rh",
        "f1"
      ],
      [
        "Nxa",
        "6"
      ],
      [
        "N",
        "xh3"
      ],
      [
        "R",
        "xg1"
      ],
      [
        "Kxd",
        "6"
      ],
      [
        "Nb",
        "2"
      ],
      [
        "N",
        "a7"
      ],
      [
        "K",
        "xh6"
      ],
      [
        "Nc",
        "e7"
      ],
      [
        "Kxd",
        "3"
      ],
      [
        "Bxc",
        "8"
      ],
      [
        "Nd",
        "f3"
      ],
      [
        "Bxc",
        "1"
      ],
      [
        "N",
        "xh8"
      ],
      [
        "K",
        "xd4"
      ],
      [
        "B",
        "xh8"
      ],
      [
        "Nxa",
        "5"
      ],
      [
        "Nxa",
        "7"
      ],
      [
        "K",
        "xb4"
      ],
      [
        "Rh",
        "d8"
      ],
      [
        "Nxa",
        "2"
      ],
      [
        "N",
        "xe8"
      ],
      [
        "Nf",
        "d2"
      ],
      [
        "K",
        "xh3"
      ],
      [
        "Rf",
        "b8"
      ],
      [
        "N",
        "xg2"
      ],
      [
        "Kxc",
        "3"
      ],
      [
        "Nxa",
        "3"
      ],
      [
        "N",
        "xe1"
      ],
      [
        "Kxc",
        "6"
      ],
      [
        "N",
        "xh7"
      ],
      [
        "Nd",
        "f6"
      ],
      [
        "B",
        "xe8"
      ],
      [
        "N",
        "h"
      ],
      [
        "Nxc",
        "1"
      ],
      [
        "B",
        "xe1"
      ],
      [
        "K",
        "xb5"
      ],
      [
        "Nc",
        "e2"
      ],
      [
        "Kxb",
        "2"
      ],
      [
        "Rc",
        "d8"
      ],
      [
        "Kxc",
        "2"
      ],
      [
        "Rf",
        "b1"
      ],
      [
        "Rc",
        "d1"
      ],
      [
        "Q",
        "xh1"
      ],
      [
        "xd",
        "7"
      ],
      [
        "N",
        "a2"
      ],
      [
        "Nb",
        "c3"
      ],
      [
        "c",
        "xb"
      ],
      [
        "Qxb",
        "8"
      ],
      [
        "Kxb",
        "7"
      ],
      [
        "Re",
        "d8"
      ],
      [
        "B",
        "xh1"
      ],
      [
        "N",
        "xh2"
      ],
      [
        "Kxc",
        "7"
      ],
      [
        "K",
        "xe8"
      ],
      [
        "Kxa",
        "4"
      ],
      [
        "Rd",
        "g1"
      ],
      [
        "Rd",
        "f1"
      ],
      [
        "Kxa",
        "5"
      ],
      [
        "xd",
        "8"
      ],
      [
        "xd",
        "1"
      ],
      [
        "K",
        "xe1"
      ],
      [
        "xd",
        "2"
      ],
      [
        "Qxb",
        "1"
      ],
      [
        "Bxb",
        "8"
      ],
      [
        "Bxb",
        "1"
      ],
      [
        "K",
        "xb3"
      ],
      [
        "K",
        "xb6"
      ],
      [
        "Rd",
        "g8"
      ],
      [
        "Rb",
        "d1"
      ],
      [
        "Rd",
        "f8"
      ],
      [
        "Bg",
        "1"
      ],
      [
        "Q",
        "xg8"
      ],
      [
        "B",
        "a8"
      ],
      [
        "R",
        "3"
      ],
      [
        "R",
        "5"
      ],
      [
        "exf",
        "7"
      ],
      [
        "Rb",
        "d8"
      ],
      [
        "Rb",
        "c1"
      ],
      [
        "Nc",
        "e4"
      ],
      [
        "R",
        "4"
      ],
      [
        "N",
        "xh1"
      ],
      [
        "R",
        "6"
      ],
      [
        "Rb",
        "c8"
      ],
      [
        "Kxa",
        "3"
      ],
      [
        "N",
        "a"
      ],
      [
        "Kxa",
        "2"
      ],
      [
        "N",
        "7"
      ],
      [
        "Kxa",
        "6"
      ],
      [
        "Bg",
        "8"
      ],
      [
        "B",
        "h8"
      ],
      [
        "Nc",
        "e5"
      ],
      [
        "B",
        "xg8"
      ],
      [
        "R",
        "2"
      ],
      [
        "R",
        "7"
      ],
      [
        "Kxa",
        "7"
      ],
      [
        "Rc",
        "e1"
      ],
      [
        "f",
        "xg7"
      ],
      [
        "Re",
        "c1"
      ],
      [
        "Nb",
        "d5"
      ],
      [
        "K",
        "xg8"
      ],
      [
        "N",
        "2"
      ],
      [
        "B",
        "a1"
      ],
      [
        "Q",
        "xg1"
      ],
      [
        "cxb",
        "2"
      ],
      [
        "Nxb",
        "8"
      ],
      [
        "K",
        "xg1"
      ],
      [
        "Rc",
        "e8"
      ],
      [
        "a",
        "xb"
      ],
      [
        "Ra",
        "xc"
      ],
      [
        "Ra",
        "g1"
      ],
      [
        "Q",
        "d"
      ],
      [
        "Nc",
        "xe5"
      ],
      [
        "Ra",
        "g8"
      ],
      [
        "N",
        "8"
      ],
      [
        "Ng",
        "xe5"
      ],
      [
        "N",
        "1"
      ],
      [
        "Rb",
        "e8"
      ],
      [
        "N",
        "5"
      ],
      [
        "Rd",
        "d7"
      ],
      [
        "Ng",
        "e4"
      ],
      [
        "Ne",
        "c6"
      ],
      [
        "Ra",
        "xd8"
      ],
      [
        "B",
        "h1"
      ],
      [
        "Rb",
        "e1"
      ],
      [
        "Ra",
        "xd1"
      ],
      [
        "Nf",
        "d5"
      ],
      [
        "Re",
        "c8"
      ],
      [
        "Rd",
        "c1"
      ],
      [
        "K",
        "xh8"
      ],
      [
        "Kxc",
        "8"
      ],
      [
        "N",
        "4"
      ],
      [
        "cxb",
        "7"
      ],
      [
        "Re",
        "e7"
      ],
      [
        "Rd",
        "c8"
      ],
      [
        "N",
        "6"
      ],
      [
        "Nb",
        "d4"
      ],
      [
        "Rh",
        "c8"
      ],
      [
        "Nxb",
        "1"
      ],
      [
        "Ne",
        "g5"
      ],
      [
        "Nd",
        "e4"
      ],
      [
        "Nd",
        "b5"
      ],
      [
        "Rd",
        "d2"
      ],
      [
        "N",
        "dxe5"
      ],
      [
        "Ng",
        "e5"
      ],
      [
        "exf",
        "2"
      ],
      [
        "N",
        "xg8"
      ],
      [
        "Re",
        "e2"
      ],
      [
        "Rd",
        "d1"
      ],
      [
        "Re",
        "e1"
      ],
      [
        "Nf",
        "d4"
      ],
      [
        "B",
        "xg1"
      ],
      [
        "d",
        "xe7"
      ],
      [
        "gxf",
        "7"
      ],
      [
        "Nc",
        "xe4"
      ],
      [
        "Kxc",
        "1"
      ],
      [
        "dxc",
        "7"
      ],
      [
        "g",
        "xh7"
      ],
      [
        "f",
        "xg2"
      ],
      [
        "h",
        "xg7"
      ],
      [
        "h",
        "xg2"
      ],
      [
        "Nb",
        "xd7"
      ],
      [
        "K",
        "xh1"
      ],
      [
        "Rc",
        "c7"
      ],
      [
        "N",
        "xg1"
      ],
      [
        "N",
        "3"
      ],
      [
        "Rf",
        "xf"
      ],
      [
        "Nb",
        "xd2"
      ],
      [
        "Re",
        "f1"
      ],
      [
        "Rd",
        "d8"
      ],
      [
        "Nd",
        "e5"
      ],
      [
        "Rf",
        "a1"
      ],
      [
        "Rh",
        "c1"
      ],
      [
        "Rd",
        "h1"
      ],
      [
        "Ne",
        "g4"
      ],
      [
        "Nf",
        "xd4"
      ],
      [
        "Q",
        "h"
      ],
      [
        "Rd",
        "h8"
      ],
      [
        "Re",
        "e8"
      ],
      [
        "Re",
        "f8"
      ],
      [
        "e",
        "xd7"
      ],
      [
        "Nh",
        "f6"
      ],
      [
        "Rc",
        "c2"
      ],
      [
        "xf",
        "6"
      ],
      [
        "dxc",
        "2"
      ],
      [
        "Ng",
        "xe4"
      ],
      [
        "Ne",
        "d4"
      ],
      [
        "Kxb",
        "8"
      ],
      [
        "Nf",
        "xd5"
      ],
      [
        "Ne",
        "d5"
      ],
      [
        "Rf",
        "f1"
      ],
      [
        "N7",
        "f6"
      ],
      [
        "Nf",
        "e5"
      ],
      [
        "Rf",
        "a8"
      ],
      [
        "Raxc",
        "8"
      ],
      [
        "N",
        "h1"
      ],
      [
        "Nf",
        "e4"
      ],
      [
        "Re",
        "b1"
      ],
      [
        "N8",
        "d7"
      ],
      [
        "N",
        "h8"
      ],
      [
        "Nd",
        "e2"
      ],
      [
        "Rf",
        "f7"
      ],
      [
        "Nf",
        "g5"
      ],
      [
        "Rf",
        "f8"
      ],
      [
        "Ne",
        "c3"
      ],
      [
        "axb",
        "2"
      ],
      [
        "g",
        "xh2"
      ],
      [
        "Rf",
        "f2"
      ],
      [
        "Ne",
        "f6"
      ],
      [
        "N2",
        "f3"
      ],
      [
        "Nc",
        "d5"
      ],
      [
        "Ra",
        "a1"
      ],
      [
        "Rc",
        "c1"
      ],
      [
        "Q",
        "a"
      ],
      [
        "R8",
        "d7"
      ],
      [
        "Nb",
        "xd5"
      ],
      [
        "Rg",
        "f1"
      ],
      [
        "Nc",
        "d7"
      ],
      [
        "Rf",
        "xd8"
      ],
      [
        "f",
        "xe7"
      ],
      [
        "Ra",
        "a8"
      ],
      [
        "Rf",
        "xd1"
      ],
      [
        "Rc",
        "xc"
      ],
      [
        "Rg",
        "e1"
      ],
      [
        "R1",
        "e2"
      ],
      [
        "Nc",
        "d4"
      ],
      [
        "N",
        "dxe4"
      ],
      [
        "Nc",
        "d2"
      ],
      [
        "Rc",
        "c8"
      ],
      [
        "Ne",
        "d7"
      ],
      [
        "Kxa",
        "8"
      ],
      [
        "Nh",
        "f3"
      ],
      [
        "Ra",
        "h1"
      ],
      [
        "c",
        "xd7"
      ],
      [
        "gxf",
        "2"
      ],
      [
        "Kxb",
        "1"
      ],
      [
        "bxa",
        "2"
      ],
      [
        "Raxc",
        "1"
      ],
      [
        "Rb",
        "b1"
      ],
      [
        "R1",
        "d2"
      ],
      [
        "Nf",
        "g4"
      ],
      [
        "Rc",
        "f8"
      ],
      [
        "R8",
        "f7"
      ],
      [
        "d",
        "xe2"
      ],
      [
        "Rb",
        "b7"
      ],
      [
        "Rb",
        "f8"
      ],
      [
        "c",
        "xd2"
      ],
      [
        "Re",
        "b8"
      ],
      [
        "Ra",
        "h8"
      ],
      [
        "Rc",
        "f1"
      ],
      [
        "Ne",
        "f3"
      ],
      [
        "axb",
        "7"
      ],
      [
        "Rg",
        "f8"
      ],
      [
        "Nc",
        "xd4"
      ],
      [
        "Kxa",
        "1"
      ],
      [
        "Rh",
        "b1"
      ],
      [
        "xf",
        "7"
      ],
      [
        "Rg",
        "e8"
      ],
      [
        "N",
        "a8"
      ],
      [
        "e",
        "xd2"
      ],
      [
        "Rf",
        "e2"
      ],
      [
        "Rb",
        "f1"
      ],
      [
        "R1",
        "f2"
      ],
      [
        "R8",
        "e7"
      ],
      [
        "Ne",
        "d2"
      ],
      [
        "Rb",
        "b2"
      ],
      [
        "Ra",
        "a7"
      ],
      [
        "Rb",
        "b8"
      ],
      [
        "bxa",
        "7"
      ],
      [
        "Nd",
        "b4"
      ],
      [
        "Rh",
        "b8"
      ],
      [
        "xf",
        "3"
      ],
      [
        "Re",
        "d2"
      ],
      [
        "Re",
        "e3"
      ],
      [
        "Ra",
        "a2"
      ],
      [
        "bxc",
        "2"
      ],
      [
        "Rc",
        "b1"
      ],
      [
        "Rd",
        "e2"
      ],
      [
        "xf",
        "4"
      ],
      [
        "Nb",
        "xd4"
      ],
      [
        "Rd",
        "b1"
      ],
      [
        "Rc",
        "b8"
      ],
      [
        "Re",
        "d7"
      ],
      [
        "Nh",
        "f4"
      ],
      [
        "N6",
        "d7"
      ],
      [
        "xf",
        "5"
      ],
      [
        "Nc",
        "b5"
      ],
      [
        "xf",
        "2"
      ],
      [
        "Nf",
        "e7"
      ],
      [
        "Ne",
        "xd5"
      ],
      [
        "N7",
        "b6"
      ],
      [
        "Rd",
        "e7"
      ],
      [
        "N1",
        "d2"
      ],
      [
        "Ra",
        "xa"
      ],
      [
        "Ng",
        "xe2"
      ],
      [
        "N",
        "a1"
      ],
      [
        "xc",
        "4"
      ],
      [
        "Rc",
        "d7"
      ],
      [
        "Nf",
        "xe5"
      ],
      [
        "Re",
        "f2"
      ],
      [
        "Ne",
        "f5"
      ],
      [
        "Nd",
        "e7"
      ],
      [
        "f",
        "xe2"
      ],
      [
        "Rg",
        "d8"
      ],
      [
        "bxc",
        "7"
      ],
      [
        "Ng",
        "xe7"
      ],
      [
        "Ne",
        "xd4"
      ],
      [
        "Rd",
        "b8"
      ],
      [
        "xc",
        "6"
      ],
      [
        "Rf",
        "d2"
      ],
      [
        "xc",
        "8"
      ],
      [
        "Rg",
        "d1"
      ],
      [
        "Rh",
        "g2"
      ],
      [
        "xc",
        "3"
      ],
      [
        "Rfxf",
        "7"
      ],
      [
        "Re",
        "f7"
      ],
      [
        "Rg",
        "g2"
      ],
      [
        "Nd",
        "c5"
      ],
      [
        "Na",
        "c6"
      ],
      [
        "Nf",
        "xe4"
      ],
      [
        "Rf",
        "d7"
      ],
      [
        "Rf",
        "e7"
      ],
      [
        "Rd",
        "f2"
      ],
      [
        "N4",
        "f3"
      ],
      [
        "Rf",
        "g8"
      ],
      [
        "Rd",
        "d6"
      ],
      [
        "Nh",
        "f5"
      ],
      [
        "Rf",
        "g1"
      ],
      [
        "Re",
        "e6"
      ],
      [
        "Ne",
        "f4"
      ],
      [
        "xf",
        "1"
      ],
      [
        "Rg",
        "f7"
      ],
      [
        "Na",
        "c4"
      ],
      [
        "N2",
        "b3"
      ],
      [
        "Rc",
        "d2"
      ],
      [
        "Rb",
        "xb"
      ],
      [
        "Rh",
        "h8"
      ],
      [
        "Rh",
        "h1"
      ],
      [
        "R1",
        "c2"
      ],
      [
        "R3",
        "e2"
      ],
      [
        "Na",
        "c5"
      ],
      [
        "Na",
        "c3"
      ],
      [
        "Rh",
        "g7"
      ],
      [
        "exf",
        "8"
      ],
      [
        "Rd",
        "c7"
      ],
      [
        "R8",
        "c7"
      ],
      [
        "Nc",
        "b4"
      ],
      [
        "Rf",
        "f3"
      ],
      [
        "Re",
        "c7"
      ],
      [
        "R1",
        "d6"
      ],
      [
        "Ra",
        "xb"
      ],
      [
        "R1",
        "e3"
      ],
      [
        "N7",
        "g6"
      ],
      [
        "N5",
        "f6"
      ],
      [
        "xc",
        "5"
      ],
      [
        "dxc",
        "1"
      ],
      [
        "Rd",
        "d3"
      ],
      [
        "Nd",
        "c4"
      ],
      [
        "Nc",
        "xd5"
      ],
      [
        "Re",
        "g1"
      ],
      [
        "Rg",
        "f2"
      ],
      [
        "R1",
        "d3"
      ],
      [
        "N2",
        "g3"
      ],
      [
        "N8",
        "e7"
      ],
      [
        "Rf",
        "e3"
      ],
      [
        "R6",
        "f7"
      ],
      [
        "N1",
        "c3"
      ],
      [
        "N1",
        "h2"
      ],
      [
        "Re",
        "g8"
      ],
      [
        "Rg",
        "g7"
      ],
      [
        "Rh",
        "g6"
      ],
      [
        "Nd",
        "f4"
      ],
      [
        "Rfxf",
        "2"
      ],
      [
        "Rb",
        "c7"
      ],
      [
        "Ne",
        "c4"
      ],
      [
        "Rd",
        "f7"
      ],
      [
        "Nc",
        "xe7"
      ],
      [
        "Rf",
        "f6"
      ],
      [
        "Rc",
        "c6"
      ],
      [
        "Rc",
        "e2"
      ],
      [
        "Rc",
        "g1"
      ],
      [
        "Nb",
        "c4"
      ],
      [
        "Ne",
        "c5"
      ],
      [
        "dxc",
        "8"
      ],
      [
        "Rd",
        "c2"
      ],
      [
        "Nd",
        "f5"
      ],
      [
        "R8",
        "g7"
      ],
      [
        "Rg",
        "g1"
      ],
      [
        "N2",
        "c3"
      ],
      [
        "d",
        "xe8"
      ],
      [
        "Nf",
        "e2"
      ],
      [
        "Re",
        "d3"
      ],
      [
        "Re",
        "a1"
      ],
      [
        "Rb",
        "c2"
      ],
      [
        "Rg",
        "f6"
      ],
      [
        "N7",
        "c6"
      ],
      [
        "N3",
        "d2"
      ],
      [
        "xc",
        "1"
      ],
      [
        "Rb",
        "d7"
      ],
      [
        "R3",
        "f2"
      ],
      [
        "Rf",
        "d3"
      ],
      [
        "Re",
        "c2"
      ],
      [
        "Rg",
        "g8"
      ],
      [
        "exf",
        "1"
      ],
      [
        "Rab",
        "2"
      ],
      [
        "Nd",
        "f1"
      ],
      [
        "R8",
        "d3"
      ],
      [
        "N5",
        "c6"
      ],
      [
        "e",
        "xd8"
      ],
      [
        "Nc",
        "d3"
      ],
      [
        "Re",
        "xd1"
      ],
      [
        "Ra",
        "d2"
      ],
      [
        "Ra",
        "e2"
      ],
      [
        "Ra",
        "f7"
      ],
      [
        "Nb",
        "d6"
      ],
      [
        "Rac",
        "7"
      ],
      [
        "Rab",
        "7"
      ],
      [
        "Nd",
        "f8"
      ],
      [
        "R8",
        "d6"
      ],
      [
        "N1",
        "e2"
      ],
      [
        "Re",
        "xe7"
      ],
      [
        "Rc",
        "e7"
      ],
      [
        "Rd",
        "xd7"
      ],
      [
        "Nd",
        "c6"
      ],
      [
        "R1",
        "g2"
      ],
      [
        "R8",
        "e3"
      ],
      [
        "Nh",
        "g4"
      ],
      [
        "xf",
        "8"
      ],
      [
        "Rf",
        "g3"
      ],
      [
        "Ng",
        "f4"
      ],
      [
        "Rb",
        "g1"
      ],
      [
        "Rg",
        "f3"
      ],
      [
        "Rd",
        "g2"
      ],
      [
        "Nd",
        "xb5"
      ],
      [
        "R3",
        "d2"
      ],
      [
        "R7",
        "d6"
      ],
      [
        "axb",
        "8"
      ],
      [
        "Rc",
        "g7"
      ],
      [
        "Ng",
        "xf6"
      ],
      [
        "Rh",
        "h2"
      ],
      [
        "Rh",
        "a1"
      ],
      [
        "Nd",
        "c3"
      ],
      [
        "R1",
        "f3"
      ],
      [
        "R8",
        "e6"
      ],
      [
        "Nf",
        "g6"
      ],
      [
        "xc",
        "7"
      ],
      [
        "Nc",
        "e3"
      ],
      [
        "Rf",
        "c7"
      ],
      [
        "Rf",
        "c2"
      ],
      [
        "Rf",
        "g2"
      ],
      [
        "Ra",
        "e7"
      ],
      [
        "Rb",
        "d2"
      ],
      [
        "Rb",
        "g8"
      ],
      [
        "Rh",
        "h7"
      ],
      [
        "Rd",
        "d5"
      ],
      [
        "Nd",
        "xe7"
      ],
      [
        "R1",
        "e6"
      ],
      [
        "R8",
        "c3"
      ],
      [
        "e",
        "xd1"
      ],
      [
        "Nf",
        "g3"
      ],
      [
        "xc",
        "2"
      ],
      [
        "Rf",
        "e6"
      ],
      [
        "Re",
        "e4"
      ],
      [
        "Re",
        "e5"
      ],
      [
        "Ra",
        "f2"
      ],
      [
        "xa",
        "2"
      ],
      [
        "Ng",
        "e3"
      ],
      [
        "Ng",
        "xf7"
      ],
      [
        "Ne",
        "d6"
      ],
      [
        "Rg",
        "e2"
      ],
      [
        "R1",
        "d7"
      ],
      [
        "R1",
        "e7"
      ],
      [
        "R8",
        "f6"
      ],
      [
        "Re",
        "f3"
      ],
      [
        "Re",
        "a8"
      ],
      [
        "Rc",
        "c4"
      ],
      [
        "Rc",
        "g2"
      ],
      [
        "Rb",
        "f2"
      ],
      [
        "Ne",
        "xg4"
      ],
      [
        "Rg",
        "h8"
      ],
      [
        "Rcxc",
        "2"
      ],
      [
        "Q",
        "1"
      ],
      [
        "Rf",
        "e4"
      ],
      [
        "Rc",
        "g8"
      ],
      [
        "Rc",
        "f2"
      ],
      [
        "Rg",
        "xg2"
      ],
      [
        "Rg",
        "c8"
      ],
      [
        "Rac",
        "2"
      ],
      [
        "Rd",
        "a1"
      ],
      [
        "Nd",
        "xf6"
      ],
      [
        "Na",
        "c7"
      ],
      [
        "R2",
        "e3"
      ],
      [
        "Re",
        "d6"
      ],
      [
        "Rc",
        "d6"
      ],
      [
        "Rc",
        "a8"
      ],
      [
        "Nb",
        "d3"
      ],
      [
        "Rb",
        "e2"
      ],
      [
        "Rb",
        "a1"
      ],
      [
        "Rb",
        "a8"
      ],
      [
        "Rh",
        "xf1"
      ],
      [
        "Rd",
        "e3"
      ],
      [
        "Rd",
        "a8"
      ],
      [
        "R8",
        "d5"
      ],
      [
        "R8",
        "d2"
      ],
      [
        "R5",
        "d7"
      ],
      [
        "R6",
        "e7"
      ],
      [
        "N",
        "dxc5"
      ],
      [
        "c",
        "xd1"
      ],
      [
        "d",
        "xe1"
      ],
      [
        "h",
        "xg8"
      ],
      [
        "Nf",
        "d3"
      ],
      [
        "Nc",
        "d6"
      ],
      [
        "Rf",
        "g7"
      ],
      [
        "Rf",
        "xc8"
      ],
      [
        "xa",
        "5"
      ],
      [
        "Rb",
        "e7"
      ],
      [
        "Rg",
        "h1"
      ],
      [
        "Nd",
        "e6"
      ],
      [
        "Nh",
        "g5"
      ],
      [
        "R5",
        "e3"
      ],
      [
        "R4",
        "e3"
      ],
      [
        "Rfxf",
        "6"
      ],
      [
        "N",
        "dxc4"
      ],
      [
        "f",
        "xe1"
      ],
      [
        "g",
        "xh8"
      ],
      [
        "Rf",
        "xe1"
      ],
      [
        "Re",
        "d5"
      ],
      [
        "Re",
        "f6"
      ],
      [
        "Re",
        "h8"
      ],
      [
        "Re",
        "h1"
      ],
      [
        "xa",
        "7"
      ],
      [
        "Rc",
        "b7"
      ],
      [
        "Ng",
        "f5"
      ],
      [
        "Ne",
        "d3"
      ],
      [
        "Rd",
        "e6"
      ],
      [
        "R8",
        "f2"
      ],
      [
        "R4",
        "e2"
      ],
      [
        "R2",
        "f3"
      ],
      [
        "N8",
        "c6"
      ],
      [
        "Q",
        "4"
      ],
      [
        "c",
        "xd8"
      ],
      [
        "Nf",
        "e6"
      ],
      [
        "Rf",
        "f4"
      ],
      [
        "Re",
        "g7"
      ],
      [
        "Ra",
        "d7"
      ],
      [
        "Ra",
        "a6"
      ],
      [
        "Rc",
        "d3"
      ],
      [
        "Rc",
        "c3"
      ],
      [
        "Ng",
        "e6"
      ],
      [
        "Ne",
        "g6"
      ],
      [
        "Rd",
        "d4"
      ],
      [
        "Rd",
        "f3"
      ],
      [
        "bxa",
        "8"
      ],
      [
        "Nd",
        "b6"
      ],
      [
        "R1",
        "h7"
      ],
      [
        "R8",
        "e4"
      ],
      [
        "R8",
        "e2"
      ],
      [
        "R5",
        "e7"
      ],
      [
        "R4",
        "f3"
      ],
      [
        "R2",
        "d3"
      ],
      [
        "N5",
        "c3"
      ],
      [
        "N5",
        "g6"
      ],
      [
        "N5",
        "b6"
      ],
      [
        "N4",
        "b3"
      ],
      [
        "Rbxb",
        "7"
      ],
      [
        "Q",
        "5"
      ],
      [
        "Nf",
        "e3"
      ],
      [
        "Re",
        "c3"
      ],
      [
        "Rc",
        "xd8"
      ],
      [
        "Rb",
        "b3"
      ],
      [
        "Rb",
        "xc8"
      ],
      [
        "Rg",
        "f4"
      ],
      [
        "Rh",
        "f7"
      ],
      [
        "bxc",
        "8"
      ],
      [
        "Rd",
        "xd3"
      ],
      [
        "Rd",
        "b2"
      ],
      [
        "R1",
        "e5"
      ],
      [
        "R1",
        "a2"
      ],
      [
        "R8",
        "a7"
      ],
      [
        "cxb",
        "8"
      ],
      [
        "R3",
        "c2"
      ],
      [
        "Na",
        "c2"
      ],
      [
        "axb",
        "1"
      ],
      [
        "Rcxc",
        "3"
      ],
      [
        "Rbxb",
        "2"
      ],
      [
        "Q",
        "3"
      ],
      [
        "h",
        "xg1"
      ],
      [
        "Nf",
        "h5"
      ],
      [
        "Nf",
        "xg5"
      ],
      [
        "Nf",
        "xd7"
      ],
      [
        "Nc",
        "b6"
      ],
      [
        "Rf",
        "h8"
      ],
      [
        "Re",
        "xe6"
      ],
      [
        "Ra",
        "g7"
      ],
      [
        "xa",
        "3"
      ],
      [
        "Rc",
        "c5"
      ],
      [
        "Rc",
        "a1"
      ],
      [
        "Rb",
        "b6"
      ],
      [
        "Ne",
        "xd7"
      ],
      [
        "Rg",
        "c1"
      ],
      [
        "Rh",
        "g3"
      ],
      [
        "R8",
        "c6"
      ],
      [
        "R8",
        "h2"
      ],
      [
        "R8",
        "b7"
      ],
      [
        "R5",
        "f4"
      ],
      [
        "R4",
        "f2"
      ],
      [
        "R6",
        "d7"
      ],
      [
        "R7",
        "e6"
      ],
      [
        "N6",
        "h5"
      ],
      [
        "Raxb",
        "8"
      ],
      [
        "Q",
        "8"
      ],
      [
        "f",
        "xg8"
      ],
      [
        "Nf",
        "h4"
      ],
      [
        "Nc",
        "xb5"
      ],
      [
        "xb",
        "2"
      ],
      [
        "Rf",
        "xe8"
      ],
      [
        "Re",
        "f5"
      ],
      [
        "xa",
        "4"
      ],
      [
        "Rc",
        "f7"
      ],
      [
        "Rc",
        "xd1"
      ],
      [
        "Rg",
        "d7"
      ],
      [
        "Rg",
        "e6"
      ],
      [
        "Rh",
        "e7"
      ],
      [
        "Rh",
        "f2"
      ],
      [
        "bxa",
        "1"
      ],
      [
        "R1",
        "f4"
      ],
      [
        "R1",
        "f7"
      ],
      [
        "R6",
        "d5"
      ],
      [
        "Na",
        "b4"
      ],
      [
        "R2",
        "d4"
      ],
      [
        "R7",
        "f6"
      ],
      [
        "N3",
        "h4"
      ],
      [
        "N3",
        "h2"
      ],
      [
        "Rcxc",
        "7"
      ],
      [
        "f",
        "xe8"
      ],
      [
        "Nf",
        "xg4"
      ],
      [
        "Re",
        "xe5"
      ],
      [
        "Re",
        "xe2"
      ],
      [
        "Re",
        "b7"
      ],
      [
        "Ra",
        "e3"
      ],
      [
        "Ra",
        "xe8"
      ],
      [
        "Rc",
        "d5"
      ],
      [
        "Rc",
        "e6"
      ],
      [
        "Rc",
        "e3"
      ],
      [
        "Rb",
        "f7"
      ],
      [
        "Rb",
        "xd8"
      ],
      [
        "Ne",
        "g3"
      ],
      [
        "Ne",
        "xc4"
      ],
      [
        "Rh",
        "g5"
      ],
      [
        "bxc",
        "1"
      ],
      [
        "gxf",
        "8"
      ],
      [
        "Rd",
        "e4"
      ],
      [
        "R1",
        "d5"
      ],
      [
        "R1",
        "h2"
      ],
      [
        "R8",
        "c5"
      ],
      [
        "Nh",
        "f1"
      ],
      [
        "Nh",
        "f7"
      ],
      [
        "R4",
        "d2"
      ],
      [
        "R6",
        "c7"
      ],
      [
        "N8",
        "h7"
      ],
      [
        "N1",
        "f3"
      ],
      [
        "N4",
        "c6"
      ],
      [
        "N4",
        "g3"
      ],
      [
        "Raxa",
        "7"
      ],
      [
        "Q",
        "7"
      ],
      [
        "Nf",
        "g8"
      ],
      [
        "Nc",
        "e6"
      ],
      [
        "Rf",
        "d6"
      ],
      [
        "Rf",
        "h1"
      ],
      [
        "Rf",
        "b7"
      ],
      [
        "Rf",
        "xc1"
      ],
      [
        "Re",
        "d4"
      ],
      [
        "Ra",
        "a3"
      ],
      [
        "Ra",
        "b6"
      ],
      [
        "xa",
        "6"
      ],
      [
        "Rc",
        "h8"
      ],
      [
        "Rc",
        "h1"
      ],
      [
        "Ng",
        "xf3"
      ],
      [
        "Nb",
        "c7"
      ],
      [
        "Rb",
        "d6"
      ],
      [
        "Rb",
        "c6"
      ],
      [
        "Rb",
        "c3"
      ],
      [
        "Rb",
        "g7"
      ],
      [
        "Rb",
        "g2"
      ],
      [
        "Ne",
        "xg5"
      ],
      [
        "Ne",
        "xd2"
      ],
      [
        "Rg",
        "d2"
      ],
      [
        "Rg",
        "h3"
      ],
      [
        "Rg",
        "g3"
      ],
      [
        "Rg",
        "xg7"
      ],
      [
        "Rg",
        "e7"
      ],
      [
        "Rh",
        "d7"
      ],
      [
        "Rh",
        "f4"
      ],
      [
        "Rh",
        "a8"
      ],
      [
        "Rd",
        "xd4"
      ],
      [
        "Rd",
        "f6"
      ],
      [
        "Rd",
        "c3"
      ],
      [
        "Rd",
        "b7"
      ],
      [
        "Rd",
        "xd2"
      ],
      [
        "Nd",
        "xf3"
      ],
      [
        "R1",
        "d4"
      ],
      [
        "R1",
        "b2"
      ],
      [
        "R8",
        "c2"
      ],
      [
        "R5",
        "e4"
      ],
      [
        "N6",
        "e7"
      ],
      [
        "Raxb",
        "1"
      ],
      [
        "Nc",
        "xb4"
      ],
      [
        "xb",
        "7"
      ],
      [
        "Rf",
        "g6"
      ],
      [
        "Rf",
        "b2"
      ],
      [
        "Re",
        "xd8"
      ],
      [
        "Rc",
        "b2"
      ],
      [
        "Qc",
        "c6"
      ],
      [
        "Qc",
        "c3"
      ],
      [
        "Ne",
        "g8"
      ],
      [
        "Rg",
        "e3"
      ],
      [
        "Rh",
        "d2"
      ],
      [
        "Rh",
        "h3"
      ],
      [
        "Rh",
        "f5"
      ],
      [
        "Rd",
        "e5"
      ],
      [
        "Rd",
        "xd5"
      ],
      [
        "Rd",
        "c4"
      ],
      [
        "Rd",
        "c6"
      ],
      [
        "Nd",
        "e3"
      ],
      [
        "R1",
        "b3"
      ],
      [
        "R8",
        "d4"
      ],
      [
        "R8",
        "f3"
      ],
      [
        "R5",
        "d6"
      ],
      [
        "R5",
        "f2"
      ],
      [
        "R4",
        "d3"
      ],
      [
        "R6",
        "g7"
      ],
      [
        "Na",
        "b5"
      ],
      [
        "Qd",
        "d2"
      ],
      [
        "N3",
        "e4"
      ],
      [
        "Rcxc",
        "6"
      ],
      [
        "Nc",
        "b8"
      ],
      [
        "Rf",
        "h3"
      ],
      [
        "Re",
        "xe4"
      ],
      [
        "Ra",
        "c6"
      ],
      [
        "Nb",
        "c5"
      ],
      [
        "Nb",
        "a6"
      ],
      [
        "Qc",
        "c2"
      ],
      [
        "Rb",
        "h8"
      ],
      [
        "Rb",
        "xc1"
      ],
      [
        "Qg",
        "g7"
      ],
      [
        "Qb",
        "b1"
      ],
      [
        "Rg",
        "g6"
      ],
      [
        "Rg",
        "g5"
      ],
      [
        "Rg",
        "b1"
      ],
      [
        "Rh",
        "h4"
      ],
      [
        "Rh",
        "f6"
      ],
      [
        "Rh",
        "f3"
      ],
      [
        "Rh",
        "xf8"
      ],
      [
        "Rd",
        "g7"
      ],
      [
        "R1",
        "f6"
      ],
      [
        "Nh",
        "g3"
      ],
      [
        "cxb",
        "1"
      ],
      [
        "R3",
        "f6"
      ],
      [
        "R5",
        "e6"
      ],
      [
        "R5",
        "e2"
      ],
      [
        "R4",
        "f7"
      ],
      [
        "R6",
        "e5"
      ],
      [
        "R7",
        "g6"
      ],
      [
        "R",
        "dxc3"
      ],
      [
        "Nf",
        "e8"
      ],
      [
        "Nc",
        "xe2"
      ],
      [
        "Re",
        "xd5"
      ],
      [
        "Re",
        "f4"
      ],
      [
        "Re",
        "g3"
      ],
      [
        "Re",
        "xd6"
      ],
      [
        "Re",
        "b2"
      ],
      [
        "Ra",
        "xe1"
      ],
      [
        "Rc",
        "xd4"
      ],
      [
        "Ng",
        "f7"
      ],
      [
        "Nb",
        "xd6"
      ],
      [
        "Qe",
        "e4"
      ],
      [
        "Qe",
        "e7"
      ],
      [
        "Rb",
        "c5"
      ],
      [
        "Qg",
        "g2"
      ],
      [
        "Ne",
        "g1"
      ],
      [
        "Rg",
        "h4"
      ],
      [
        "Rg",
        "h2"
      ],
      [
        "Rh",
        "xh2"
      ],
      [
        "Rh",
        "e2"
      ],
      [
        "Rd",
        "xe6"
      ],
      [
        "Rd",
        "xd6"
      ],
      [
        "Nd",
        "xf4"
      ],
      [
        "R1",
        "e4"
      ],
      [
        "R1",
        "c6"
      ],
      [
        "R8",
        "c4"
      ],
      [
        "R8",
        "f5"
      ],
      [
        "R8",
        "h7"
      ],
      [
        "R8",
        "b2"
      ],
      [
        "Nh",
        "f8"
      ],
      [
        "R5",
        "d2"
      ],
      [
        "R5",
        "f3"
      ],
      [
        "R5",
        "c7"
      ],
      [
        "R5",
        "f7"
      ],
      [
        "R6",
        "d2"
      ],
      [
        "Na",
        "xc4"
      ],
      [
        "N7",
        "xf6"
      ],
      [
        "R2",
        "e4"
      ],
      [
        "R2",
        "e5"
      ],
      [
        "N1",
        "xe2"
      ],
      [
        "N5",
        "e4"
      ],
      [
        "N4",
        "a6"
      ],
      [
        "N4",
        "c3"
      ],
      [
        "N6",
        "e5"
      ],
      [
        "Raxa",
        "2"
      ],
      [
        "Q",
        "6"
      ],
      [
        "R",
        "dxe5"
      ],
      [
        "g",
        "xh1"
      ],
      [
        "Rf",
        "f5"
      ],
      [
        "Rf",
        "g4"
      ],
      [
        "Rf",
        "xe3"
      ],
      [
        "Rf",
        "xe7"
      ],
      [
        "Re",
        "c4"
      ],
      [
        "Re",
        "xe3"
      ],
      [
        "Re",
        "xc7"
      ],
      [
        "Ra",
        "b5"
      ],
      [
        "Ra",
        "b3"
      ],
      [
        "Ra",
        "g2"
      ],
      [
        "Rc",
        "d4"
      ],
      [
        "Rc",
        "b3"
      ],
      [
        "Nb",
        "c2"
      ],
      [
        "Nb",
        "xc4"
      ],
      [
        "Qe",
        "e2"
      ],
      [
        "Qe",
        "c7"
      ],
      [
        "Qc",
        "a1"
      ],
      [
        "Qc",
        "a8"
      ],
      [
        "Rb",
        "c4"
      ],
      [
        "Qg",
        "e7"
      ],
      [
        "Qb",
        "b3"
      ],
      [
        "Ne",
        "xc6"
      ],
      [
        "Rg",
        "d3"
      ],
      [
        "Rh",
        "e3"
      ],
      [
        "Rh",
        "xh3"
      ],
      [
        "Rh",
        "xh7"
      ],
      [
        "Rd",
        "f4"
      ],
      [
        "Nd",
        "b8"
      ],
      [
        "Nd",
        "b1"
      ],
      [
        "Nh",
        "f2"
      ],
      [
        "Nh",
        "xf4"
      ],
      [
        "R3",
        "e4"
      ],
      [
        "R3",
        "d4"
      ],
      [
        "R3",
        "c4"
      ],
      [
        "R5",
        "f6"
      ],
      [
        "R4",
        "d5"
      ],
      [
        "R4",
        "c6"
      ],
      [
        "R4",
        "c7"
      ],
      [
        "R6",
        "d3"
      ],
      [
        "R6",
        "f4"
      ],
      [
        "R6",
        "f5"
      ],
      [
        "N7",
        "d5"
      ],
      [
        "R2",
        "d7"
      ],
      [
        "R2",
        "h3"
      ],
      [
        "R2",
        "c3"
      ],
      [
        "Qd",
        "d5"
      ],
      [
        "Qd",
        "d3"
      ],
      [
        "N8",
        "f6"
      ],
      [
        "N4",
        "f6"
      ],
      [
        "Rfxf",
        "4"
      ],
      [
        "Raxa",
        "6"
      ],
      [
        "Nf",
        "xd2"
      ],
      [
        "Nc",
        "e8"
      ],
      [
        "Re",
        "xd7"
      ],
      [
        "Ra",
        "e5"
      ],
      [
        "Ra",
        "c4"
      ],
      [
        "Rc",
        "xd6"
      ],
      [
        "Ng",
        "xe6"
      ],
      [
        "Ng",
        "xf2"
      ],
      [
        "Nb",
        "a3"
      ],
      [
        "Nb",
        "xc3"
      ],
      [
        "Qc",
        "e3"
      ],
      [
        "Qc",
        "c7"
      ],
      [
        "Rb",
        "d3"
      ],
      [
        "Rb",
        "b4"
      ],
      [
        "Qg",
        "g3"
      ],
      [
        "Qg",
        "g1"
      ],
      [
        "Qg",
        "g8"
      ],
      [
        "Qb",
        "b2"
      ],
      [
        "Ne",
        "xd3"
      ],
      [
        "Ne",
        "c2"
      ],
      [
        "Ne",
        "xf5"
      ],
      [
        "Rg",
        "f5"
      ],
      [
        "Rg",
        "g4"
      ],
      [
        "Rh",
        "e5"
      ],
      [
        "Rh",
        "d3"
      ],
      [
        "Rh",
        "xh4"
      ],
      [
        "Rh",
        "c2"
      ],
      [
        "Qf",
        "d8"
      ],
      [
        "Qf",
        "f7"
      ],
      [
        "Rd",
        "c5"
      ],
      [
        "Rd",
        "g3"
      ],
      [
        "Rd",
        "a7"
      ],
      [
        "Nd",
        "b3"
      ],
      [
        "R8",
        "g6"
      ],
      [
        "R8",
        "b6"
      ],
      [
        "R3",
        "g2"
      ],
      [
        "R5",
        "d3"
      ],
      [
        "R4",
        "e6"
      ],
      [
        "R4",
        "e7"
      ],
      [
        "R6",
        "f3"
      ],
      [
        "R6",
        "c2"
      ],
      [
        "R7",
        "d3"
      ],
      [
        "R7",
        "e2"
      ],
      [
        "Qd",
        "d6"
      ],
      [
        "Qd",
        "b7"
      ],
      [
        "N6",
        "a5"
      ],
      [
        "Rfxf",
        "3"
      ],
      [
        "N",
        "hxg5"
      ],
      [
        "R",
        "dxe4"
      ],
      [
        "f",
        "xg1"
      ],
      [
        "Nc",
        "a6"
      ],
      [
        "xb",
        "1"
      ],
      [
        "xb",
        "8"
      ],
      [
        "Rf",
        "e5"
      ],
      [
        "Rf",
        "xe5"
      ],
      [
        "Rf",
        "h6"
      ],
      [
        "Rf",
        "h4"
      ],
      [
        "Rf",
        "c6"
      ],
      [
        "Rf",
        "xe6"
      ],
      [
        "Re",
        "xd4"
      ],
      [
        "Re",
        "c5"
      ],
      [
        "Re",
        "c6"
      ],
      [
        "Re",
        "g2"
      ],
      [
        "Ra",
        "d4"
      ],
      [
        "Ra",
        "c5"
      ],
      [
        "Ra",
        "f3"
      ],
      [
        "Ra",
        "c3"
      ],
      [
        "Rc",
        "a6"
      ],
      [
        "Rc",
        "xe7"
      ],
      [
        "Ng",
        "h4"
      ],
      [
        "Nb",
        "xc6"
      ],
      [
        "Qe",
        "c8"
      ],
      [
        "Qe",
        "c2"
      ],
      [
        "Qc",
        "d7"
      ],
      [
        "Qc",
        "a7"
      ],
      [
        "Rb",
        "a6"
      ],
      [
        "Rb",
        "b5"
      ],
      [
        "Rb",
        "xd1"
      ],
      [
        "Ne",
        "xf4"
      ],
      [
        "Ne",
        "xc3"
      ],
      [
        "Ne",
        "xc5"
      ],
      [
        "Rg",
        "e4"
      ],
      [
        "Rg",
        "e5"
      ],
      [
        "Rg",
        "h7"
      ],
      [
        "Rh",
        "xg1"
      ],
      [
        "Rh",
        "xf7"
      ],
      [
        "gxf",
        "1"
      ],
      [
        "Rd",
        "g6"
      ],
      [
        "Rd",
        "xf1"
      ],
      [
        "Nd",
        "xb4"
      ],
      [
        "Nd",
        "xe2"
      ],
      [
        "Nd",
        "xf5"
      ],
      [
        "R1",
        "xd4"
      ],
      [
        "R1",
        "c3"
      ],
      [
        "R1",
        "g3"
      ],
      [
        "R1",
        "xe2"
      ],
      [
        "R1",
        "c7"
      ],
      [
        "R1",
        "g7"
      ],
      [
        "R8",
        "f4"
      ],
      [
        "R8",
        "g3"
      ],
      [
        "Nh",
        "xf5"
      ],
      [
        "R3",
        "e7"
      ],
      [
        "R5",
        "g6"
      ],
      [
        "R4",
        "c5"
      ],
      [
        "R4",
        "f6"
      ],
      [
        "R6",
        "e4"
      ],
      [
        "R6",
        "d4"
      ],
      [
        "R6",
        "e2"
      ],
      [
        "R2",
        "f7"
      ],
      [
        "R7",
        "e5"
      ],
      [
        "Qd",
        "d4"
      ],
      [
        "N1",
        "g3"
      ],
      [
        "N5",
        "d4"
      ],
      [
        "N5",
        "f3"
      ],
      [
        "N6",
        "e4"
      ],
      [
        "N6",
        "d5"
      ],
      [
        "N3",
        "d4"
      ],
      [
        "N3",
        "e2"
      ],
      [
        "Rfxf",
        "5"
      ],
      [
        "Qh",
        "h7"
      ],
      [
        "Qh",
        "g2"
      ],
      [
        "Q",
        "2"
      ],
      [
        "Nf",
        "h2"
      ],
      [
        "Nc",
        "e1"
      ],
      [
        "Rf",
        "d4"
      ],
      [
        "Rf",
        "g5"
      ],
      [
        "Rf",
        "xe2"
      ],
      [
        "Rf",
        "a7"
      ],
      [
        "Re",
        "b6"
      ],
      [
        "Re",
        "a2"
      ],
      [
        "Re",
        "xe8"
      ],
      [
        "Ra",
        "d5"
      ],
      [
        "Ra",
        "d3"
      ],
      [
        "Ra",
        "a5"
      ],
      [
        "Rc",
        "e4"
      ],
      [
        "Rc",
        "f6"
      ],
      [
        "Rc",
        "f3"
      ],
      [
        "Rc",
        "a2"
      ],
      [
        "Rc",
        "xd2"
      ],
      [
        "Ng",
        "h3"
      ],
      [
        "Ng",
        "xe3"
      ],
      [
        "Ng",
        "h2"
      ],
      [
        "Qe",
        "e5"
      ],
      [
        "Qe",
        "e3"
      ],
      [
        "Qe",
        "e1"
      ],
      [
        "Qc",
        "c4"
      ],
      [
        "Rb",
        "e5"
      ],
      [
        "Rb",
        "e3"
      ],
      [
        "Rb",
        "h1"
      ],
      [
        "Qb",
        "b7"
      ],
      [
        "Ne",
        "f7"
      ],
      [
        "Ne",
        "xf6"
      ],
      [
        "Rg",
        "xg5"
      ],
      [
        "Rg",
        "xg6"
      ],
      [
        "Rg",
        "c7"
      ],
      [
        "Rg",
        "xf7"
      ],
      [
        "Rh",
        "h6"
      ],
      [
        "Rh",
        "h5"
      ],
      [
        "Rh",
        "e6"
      ],
      [
        "Rh",
        "xe8"
      ],
      [
        "Qf",
        "f3"
      ],
      [
        "Qf",
        "f8"
      ],
      [
        "Rd",
        "b6"
      ],
      [
        "Rd",
        "b3"
      ],
      [
        "Rd",
        "xe7"
      ],
      [
        "Rd",
        "h2"
      ],
      [
        "Rd",
        "xe8"
      ],
      [
        "Rd",
        "xf7"
      ],
      [
        "Nd",
        "xf2"
      ],
      [
        "R1",
        "c4"
      ],
      [
        "R1",
        "h6"
      ],
      [
        "R1",
        "f5"
      ],
      [
        "R1",
        "a6"
      ],
      [
        "R1",
        "xd2"
      ],
      [
        "R8",
        "e5"
      ],
      [
        "R8",
        "h3"
      ],
      [
        "R8",
        "b3"
      ],
      [
        "Nh",
        "g6"
      ],
      [
        "R3",
        "d5"
      ],
      [
        "R3",
        "d6"
      ],
      [
        "R3",
        "h4"
      ],
      [
        "R3",
        "f4"
      ],
      [
        "R3",
        "f5"
      ],
      [
        "R3",
        "a2"
      ],
      [
        "R5",
        "d4"
      ],
      [
        "R5",
        "a6"
      ],
      [
        "R5",
        "b7"
      ],
      [
        "Na",
        "b6"
      ],
      [
        "Na",
        "xc5"
      ],
      [
        "N7",
        "e5"
      ],
      [
        "R2",
        "c4"
      ],
      [
        "R2",
        "g3"
      ],
      [
        "R7",
        "h6"
      ],
      [
        "R7",
        "e3"
      ],
      [
        "R7",
        "b6"
      ],
      [
        "R7",
        "g2"
      ],
      [
        "Raxc",
        "6"
      ],
      [
        "Qd",
        "d7"
      ],
      [
        "Qd",
        "d8"
      ],
      [
        "Qd",
        "b6"
      ],
      [
        "Qd",
        "b3"
      ],
      [
        "Qd",
        "e2"
      ],
      [
        "N5",
        "f4"
      ],
      [
        "N5",
        "a3"
      ],
      [
        "N4",
        "e5"
      ],
      [
        "N3",
        "a4"
      ],
      [
        "Qh",
        "h2"
      ],
      [
        "Qh",
        "f8"
      ],
      [
        "Qa",
        "c3"
      ],
      [
        "Rcxc",
        "1"
      ],
      [
        "Rcxc",
        "4"
      ],
      [
        "Raxa",
        "4"
      ],
      [
        "R",
        "dxc4"
      ],
      [
        "R",
        "dxc7"
      ],
      [
        "R",
        "dxc1"
      ],
      [
        "R",
        "dxc8"
      ],
      [
        "Nf",
        "g1"
      ],
      [
        "Nc",
        "b3"
      ],
      [
        "Nc",
        "b1"
      ],
      [
        "Rf",
        "a2"
      ],
      [
        "Re",
        "h3"
      ],
      [
        "Re",
        "g6"
      ],
      [
        "Re",
        "xd3"
      ],
      [
        "Re",
        "xf6"
      ],
      [
        "Re",
        "xc2"
      ],
      [
        "Ra",
        "b4"
      ],
      [
        "Ra",
        "xf8"
      ],
      [
        "Rc",
        "e5"
      ],
      [
        "Rc",
        "b5"
      ],
      [
        "Rc",
        "b6"
      ],
      [
        "Ng",
        "h6"
      ],
      [
        "Ng",
        "f1"
      ],
      [
        "Nb",
        "c1"
      ],
      [
        "Qe",
        "f2"
      ],
      [
        "Qc",
        "a2"
      ],
      [
        "Qc",
        "c1"
      ],
      [
        "Rb",
        "d5"
      ],
      [
        "Rb",
        "xb4"
      ],
      [
        "Rb",
        "a7"
      ],
      [
        "Rb",
        "xb3"
      ],
      [
        "Rb",
        "xb6"
      ],
      [
        "Rb",
        "xf2"
      ],
      [
        "Qg",
        "g6"
      ],
      [
        "Qb",
        "b6"
      ],
      [
        "Qb",
        "b8"
      ],
      [
        "Ne",
        "xd6"
      ],
      [
        "Ne",
        "xf3"
      ],
      [
        "Rg",
        "h5"
      ],
      [
        "Rg",
        "xg4"
      ],
      [
        "Rg",
        "b8"
      ],
      [
        "Rg",
        "b7"
      ],
      [
        "Rh",
        "d5"
      ],
      [
        "Rh",
        "g4"
      ],
      [
        "Rh",
        "xh6"
      ],
      [
        "Rh",
        "xg8"
      ],
      [
        "Rh",
        "xf2"
      ],
      [
        "Qf",
        "f6"
      ],
      [
        "Qf",
        "f2"
      ],
      [
        "Rd",
        "h3"
      ],
      [
        "Rd",
        "f5"
      ],
      [
        "Rd",
        "xe2"
      ],
      [
        "Rd",
        "xe1"
      ],
      [
        "Rd",
        "xd8"
      ],
      [
        "Nd",
        "xe6"
      ],
      [
        "Nd",
        "xe3"
      ],
      [
        "Nd",
        "f7"
      ],
      [
        "Nd",
        "f2"
      ],
      [
        "R1",
        "h3"
      ],
      [
        "R1",
        "a5"
      ],
      [
        "R1",
        "a3"
      ],
      [
        "R1",
        "b6"
      ],
      [
        "R1",
        "a7"
      ],
      [
        "R1",
        "xd3"
      ],
      [
        "R8",
        "h6"
      ],
      [
        "R8",
        "b4"
      ],
      [
        "R8",
        "xe3"
      ],
      [
        "R8",
        "xe7"
      ],
      [
        "R8",
        "xd6"
      ],
      [
        "Nh",
        "g8"
      ],
      [
        "Nh",
        "xf6"
      ],
      [
        "R4",
        "e5"
      ],
      [
        "R4",
        "d7"
      ],
      [
        "R4",
        "h5"
      ],
      [
        "R4",
        "f5"
      ],
      [
        "R4",
        "g5"
      ],
      [
        "R6",
        "b5"
      ],
      [
        "Na",
        "b8"
      ],
      [
        "R2",
        "e6"
      ],
      [
        "R2",
        "b3"
      ],
      [
        "R2",
        "xc3"
      ],
      [
        "R7",
        "d4"
      ],
      [
        "R7",
        "f5"
      ],
      [
        "R7",
        "c6"
      ],
      [
        "R7",
        "a6"
      ],
      [
        "Raxc",
        "7"
      ],
      [
        "Qd",
        "b8"
      ],
      [
        "Qd",
        "b2"
      ],
      [
        "N3",
        "f4"
      ],
      [
        "N3",
        "g4"
      ],
      [
        "Rfxf",
        "1"
      ],
      [
        "Rcxc",
        "5"
      ],
      [
        "Raxa",
        "5"
      ],
      [
        "Nf",
        "xe6"
      ],
      [
        "Nf",
        "e1"
      ],
      [
        "Nc",
        "a4"
      ],
      [
        "Nc",
        "xe3"
      ],
      [
        "Nc",
        "xd6"
      ],
      [
        "Rf",
        "xe4"
      ],
      [
        "Rf",
        "c3"
      ],
      [
        "Rf",
        "b4"
      ],
      [
        "Rf",
        "xd6"
      ],
      [
        "Rf",
        "xd2"
      ],
      [
        "Re",
        "g4"
      ],
      [
        "Re",
        "g5"
      ],
      [
        "Re",
        "xf3"
      ],
      [
        "Ra",
        "a4"
      ],
      [
        "Ra",
        "xb3"
      ],
      [
        "Ra",
        "xd7"
      ],
      [
        "Rc",
        "xe6"
      ],
      [
        "Rc",
        "xb3"
      ],
      [
        "Rc",
        "xf7"
      ],
      [
        "Rc",
        "xa2"
      ],
      [
        "Ng",
        "h5"
      ],
      [
        "Ng",
        "f8"
      ],
      [
        "Nb",
        "xc5"
      ],
      [
        "Qe",
        "f5"
      ],
      [
        "Qe",
        "g6"
      ],
      [
        "Qe",
        "g7"
      ],
      [
        "Qc",
        "d2"
      ],
      [
        "Qc",
        "e8"
      ],
      [
        "Rb",
        "d4"
      ],
      [
        "Rb",
        "a5"
      ],
      [
        "Qb",
        "d6"
      ],
      [
        "Qb",
        "b4"
      ],
      [
        "Ne",
        "f1"
      ],
      [
        "Ne",
        "c7"
      ],
      [
        "Rg",
        "d6"
      ],
      [
        "Rg",
        "xd5"
      ],
      [
        "Rg",
        "h6"
      ],
      [
        "Rg",
        "xg3"
      ],
      [
        "Rh",
        "c5"
      ],
      [
        "Rh",
        "xe5"
      ],
      [
        "Rh",
        "c6"
      ],
      [
        "Rh",
        "xg2"
      ],
      [
        "Rh",
        "c7"
      ],
      [
        "Rh",
        "xd1"
      ],
      [
        "Rh",
        "xf4"
      ],
      [
        "Qf",
        "d4"
      ],
      [
        "Qf",
        "f5"
      ],
      [
        "Qf",
        "e7"
      ],
      [
        "Qf",
        "h8"
      ],
      [
        "Qf",
        "h1"
      ],
      [
        "Rd",
        "xf4"
      ],
      [
        "R1",
        "c5"
      ],
      [
        "R1",
        "g6"
      ],
      [
        "R1",
        "g4"
      ],
      [
        "R1",
        "b7"
      ],
      [
        "R1",
        "xc3"
      ],
      [
        "R8",
        "xe4"
      ],
      [
        "R8",
        "xf7"
      ],
      [
        "R3",
        "d7"
      ],
      [
        "R3",
        "g5"
      ],
      [
        "R5",
        "h4"
      ],
      [
        "R5",
        "c3"
      ],
      [
        "R5",
        "g3"
      ],
      [
        "R4",
        "d6"
      ],
      [
        "R4",
        "c3"
      ],
      [
        "R4",
        "g2"
      ],
      [
        "R6",
        "h5"
      ],
      [
        "R6",
        "b3"
      ],
      [
        "R6",
        "b7"
      ],
      [
        "R2",
        "d6"
      ],
      [
        "R7",
        "d5"
      ],
      [
        "R7",
        "f4"
      ],
      [
        "R7",
        "f2"
      ],
      [
        "N2",
        "d4"
      ],
      [
        "Qd",
        "f4"
      ],
      [
        "Qd",
        "e7"
      ],
      [
        "Qd",
        "f8"
      ],
      [
        "N8",
        "a6"
      ],
      [
        "N8",
        "xd7"
      ],
      [
        "N5",
        "g4"
      ],
      [
        "N4",
        "d5"
      ],
      [
        "N4",
        "xe5"
      ],
      [
        "N6",
        "c4"
      ],
      [
        "Rfxf",
        "8"
      ],
      [
        "Qh",
        "e5"
      ],
      [
        "Qa",
        "a3"
      ],
      [
        "Raxa",
        "3"
      ],
      [
        "Rbxb",
        "1"
      ],
      [
        "Nf",
        "d6"
      ],
      [
        "Nf",
        "xe3"
      ],
      [
        "Nf",
        "xe7"
      ],
      [
        "Nf",
        "xd6"
      ],
      [
        "Nc",
        "xe6"
      ],
      [
        "Rf",
        "xd5"
      ],
      [
        "Rf",
        "c4"
      ],
      [
        "Rf",
        "b3"
      ],
      [
        "Rf",
        "xd3"
      ],
      [
        "Rf",
        "xc2"
      ],
      [
        "Re",
        "a5"
      ],
      [
        "Re",
        "b5"
      ],
      [
        "Re",
        "xf4"
      ],
      [
        "Re",
        "xf2"
      ],
      [
        "Re",
        "xb2"
      ],
      [
        "Ra",
        "d6"
      ],
      [
        "Ra",
        "f5"
      ],
      [
        "Ra",
        "f6"
      ],
      [
        "Ra",
        "xb5"
      ],
      [
        "Ra",
        "h2"
      ],
      [
        "Rc",
        "f4"
      ],
      [
        "Rc",
        "a3"
      ],
      [
        "Rc",
        "b4"
      ],
      [
        "Rc",
        "a7"
      ],
      [
        "Rc",
        "xa7"
      ],
      [
        "Ng",
        "h7"
      ],
      [
        "Ng",
        "f2"
      ],
      [
        "Ng",
        "xf5"
      ],
      [
        "Nb",
        "a4"
      ],
      [
        "Nb",
        "c8"
      ],
      [
        "Qe",
        "d3"
      ],
      [
        "Qe",
        "d2"
      ],
      [
        "Qe",
        "e6"
      ],
      [
        "Qe",
        "c3"
      ],
      [
        "Qe",
        "g3"
      ],
      [
        "Qe",
        "g8"
      ],
      [
        "Qe",
        "f7"
      ],
      [
        "Qc",
        "d4"
      ],
      [
        "Rb",
        "xe5"
      ],
      [
        "Rb",
        "f3"
      ],
      [
        "Rb",
        "a2"
      ],
      [
        "Rb",
        "xa2"
      ],
      [
        "Qg",
        "d4"
      ],
      [
        "Qg",
        "c4"
      ],
      [
        "Qg",
        "g4"
      ],
      [
        "Qg",
        "g5"
      ],
      [
        "Qg",
        "e8"
      ],
      [
        "Qg",
        "e2"
      ],
      [
        "Qb",
        "e5"
      ],
      [
        "Qb",
        "d4"
      ],
      [
        "Qb",
        "c3"
      ],
      [
        "Qb",
        "c1"
      ],
      [
        "Qb",
        "c7"
      ],
      [
        "Qb",
        "c2"
      ],
      [
        "Ne",
        "xf7"
      ],
      [
        "Rg",
        "d4"
      ],
      [
        "Rg",
        "xe5"
      ],
      [
        "Rg",
        "a8"
      ],
      [
        "Rg",
        "c2"
      ],
      [
        "Rg",
        "b2"
      ],
      [
        "Rh",
        "e4"
      ],
      [
        "Rh",
        "d6"
      ],
      [
        "Rh",
        "c4"
      ],
      [
        "Rh",
        "xg3"
      ],
      [
        "Rh",
        "xg7"
      ],
      [
        "Rh",
        "xe1"
      ],
      [
        "Rh",
        "xf6"
      ],
      [
        "Qf",
        "d3"
      ],
      [
        "Qf",
        "e2"
      ],
      [
        "Qf",
        "f1"
      ],
      [
        "Rd",
        "h5"
      ],
      [
        "Rd",
        "a4"
      ],
      [
        "Rd",
        "xb6"
      ],
      [
        "Nd",
        "c7"
      ],
      [
        "R1",
        "xd5"
      ],
      [
        "R1",
        "xe4"
      ],
      [
        "R1",
        "xc6"
      ],
      [
        "R8",
        "h4"
      ],
      [
        "R8",
        "a3"
      ],
      [
        "R8",
        "xe6"
      ],
      [
        "R8",
        "g4"
      ],
      [
        "Nh",
        "xf3"
      ],
      [
        "R3",
        "g6"
      ],
      [
        "R3",
        "h2"
      ],
      [
        "R5",
        "h6"
      ],
      [
        "R5",
        "c6"
      ],
      [
        "R5",
        "a4"
      ],
      [
        "R5",
        "c2"
      ],
      [
        "R4",
        "a3"
      ],
      [
        "R4",
        "b5"
      ],
      [
        "R4",
        "g3"
      ],
      [
        "R4",
        "c2"
      ],
      [
        "R6",
        "c5"
      ],
      [
        "R6",
        "a5"
      ],
      [
        "R6",
        "e3"
      ],
      [
        "R6",
        "h7"
      ],
      [
        "R6",
        "f2"
      ],
      [
        "Na",
        "b3"
      ],
      [
        "Na",
        "b1"
      ],
      [
        "Na",
        "xc6"
      ],
      [
        "N7",
        "c5"
      ],
      [
        "R2",
        "d5"
      ],
      [
        "R2",
        "f4"
      ],
      [
        "R2",
        "a3"
      ],
      [
        "R2",
        "b6"
      ],
      [
        "R2",
        "g7"
      ],
      [
        "R7",
        "e4"
      ],
      [
        "R7",
        "d2"
      ],
      [
        "R7",
        "f3"
      ],
      [
        "R7",
        "xe6"
      ],
      [
        "R7",
        "g5"
      ],
      [
        "R7",
        "xb6"
      ],
      [
        "R7",
        "c2"
      ],
      [
        "R7",
        "b2"
      ],
      [
        "R7",
        "xc6"
      ],
      [
        "N2",
        "e4"
      ],
      [
        "Raxc",
        "3"
      ],
      [
        "Qd",
        "d1"
      ],
      [
        "Qd",
        "b5"
      ],
      [
        "Qd",
        "e1"
      ],
      [
        "Qd",
        "c7"
      ],
      [
        "N5",
        "xd4"
      ],
      [
        "N4",
        "c5"
      ],
      [
        "N6",
        "xe5"
      ],
      [
        "N6",
        "f5"
      ],
      [
        "N3",
        "d5"
      ],
      [
        "Qh",
        "h5"
      ],
      [
        "Qh",
        "c3"
      ],
      [
        "Qh",
        "h1"
      ],
      [
        "Qa",
        "e4"
      ],
      [
        "Qa",
        "a5"
      ],
      [
        "Qa",
        "a4"
      ],
      [
        "Raxb",
        "2"
      ],
      [
        "N",
        "hxg6"
      ],
      [
        "N",
        "dxc3"
      ],
      [
        "N",
        "dxc7"
      ],
      [
        "R",
        "dxc5"
      ],
      [
        "R",
        "dxc6"
      ],
      [
        "R",
        "dxc2"
      ],
      [
        "Nf",
        "h3"
      ],
      [
        "Nf",
        "d8"
      ],
      [
        "Nf",
        "d1"
      ],
      [
        "Nf",
        "xh5"
      ],
      [
        "Nf",
        "xd3"
      ],
      [
        "Nc",
        "d1"
      ],
      [
        "Nc",
        "xb6"
      ],
      [
        "Nc",
        "xd7"
      ],
      [
        "Rf",
        "d5"
      ],
      [
        "Rf",
        "c5"
      ],
      [
        "Rf",
        "h2"
      ],
      [
        "Rf",
        "h7"
      ],
      [
        "Rf",
        "xh2"
      ],
      [
        "Rf",
        "xc7"
      ],
      [
        "Rf",
        "xb1"
      ],
      [
        "Re",
        "b3"
      ],
      [
        "Re",
        "a7"
      ],
      [
        "Re",
        "h7"
      ],
      [
        "Re",
        "xe1"
      ],
      [
        "Re",
        "xd2"
      ],
      [
        "Re",
        "xf5"
      ],
      [
        "Re",
        "xc8"
      ],
      [
        "Ra",
        "xd5"
      ],
      [
        "Ra",
        "g4"
      ],
      [
        "Ra",
        "xe7"
      ],
      [
        "Ra",
        "xd2"
      ],
      [
        "Rc",
        "xd5"
      ],
      [
        "Rc",
        "xe4"
      ],
      [
        "Rc",
        "a5"
      ],
      [
        "Rc",
        "a4"
      ],
      [
        "Rc",
        "g6"
      ],
      [
        "Rc",
        "g3"
      ],
      [
        "Rc",
        "xb6"
      ],
      [
        "Rc",
        "xf6"
      ],
      [
        "Rc",
        "xf2"
      ],
      [
        "Ng",
        "xf4"
      ],
      [
        "Nb",
        "d8"
      ],
      [
        "Nb",
        "xc7"
      ],
      [
        "Qe",
        "c4"
      ],
      [
        "Qe",
        "c5"
      ],
      [
        "Qe",
        "f6"
      ],
      [
        "Qe",
        "c6"
      ],
      [
        "Qe",
        "g4"
      ],
      [
        "Qe",
        "g5"
      ],
      [
        "Qe",
        "c1"
      ],
      [
        "Qc",
        "c5"
      ],
      [
        "Qc",
        "a4"
      ],
      [
        "Qc",
        "e1"
      ],
      [
        "Rb",
        "e4"
      ],
      [
        "Rb",
        "xd4"
      ],
      [
        "Rb",
        "e6"
      ],
      [
        "Rb",
        "f4"
      ],
      [
        "Rb",
        "g6"
      ],
      [
        "Rb",
        "h2"
      ],
      [
        "Rb",
        "xd7"
      ],
      [
        "Rb",
        "xc7"
      ],
      [
        "Rb",
        "xa3"
      ],
      [
        "Qg",
        "e5"
      ],
      [
        "Qg",
        "d5"
      ],
      [
        "Qg",
        "e6"
      ],
      [
        "Qg",
        "f3"
      ],
      [
        "Qg",
        "d8"
      ],
      [
        "Qg",
        "e3"
      ],
      [
        "Qb",
        "b5"
      ],
      [
        "Qb",
        "e8"
      ],
      [
        "Ne",
        "xg3"
      ],
      [
        "Ne",
        "c1"
      ],
      [
        "Ne",
        "g2"
      ],
      [
        "Ne",
        "xf2"
      ],
      [
        "Rg",
        "d5"
      ],
      [
        "Rg",
        "c3"
      ],
      [
        "Rg",
        "b6"
      ],
      [
        "Rg",
        "xe1"
      ],
      [
        "Rg",
        "xf2"
      ],
      [
        "Rh",
        "d4"
      ],
      [
        "Rh",
        "xe6"
      ],
      [
        "Rh",
        "xh5"
      ],
      [
        "Rh",
        "b7"
      ],
      [
        "Rh",
        "xd8"
      ],
      [
        "Rh",
        "xc8"
      ],
      [
        "Qf",
        "d2"
      ],
      [
        "Qf",
        "h6"
      ],
      [
        "Qf",
        "h5"
      ],
      [
        "Qf",
        "d1"
      ],
      [
        "Qf",
        "e3"
      ],
      [
        "Rd",
        "a6"
      ],
      [
        "Rd",
        "g5"
      ],
      [
        "Rd",
        "xg4"
      ],
      [
        "Rd",
        "xe3"
      ],
      [
        "Rd",
        "a2"
      ],
      [
        "Rd",
        "xh7"
      ],
      [
        "Rd",
        "xf6"
      ],
      [
        "Rd",
        "xf3"
      ],
      [
        "Rd",
        "xf5"
      ],
      [
        "Rd",
        "xf2"
      ],
      [
        "Rd",
        "xb7"
      ],
      [
        "Nd",
        "xf7"
      ],
      [
        "R1",
        "h5"
      ],
      [
        "R1",
        "h4"
      ],
      [
        "R1",
        "b4"
      ],
      [
        "R1",
        "g5"
      ],
      [
        "R1",
        "xg2"
      ],
      [
        "R8",
        "g5"
      ],
      [
        "R8",
        "a2"
      ],
      [
        "R8",
        "xf3"
      ],
      [
        "Nh",
        "g1"
      ],
      [
        "R3",
        "xe4"
      ],
      [
        "R3",
        "a4"
      ],
      [
        "R3",
        "c7"
      ],
      [
        "R3",
        "b2"
      ],
      [
        "R5",
        "b2"
      ],
      [
        "R5",
        "g7"
      ],
      [
        "R5",
        "g2"
      ],
      [
        "R4",
        "h2"
      ],
      [
        "R4",
        "b2"
      ],
      [
        "R4",
        "g7"
      ],
      [
        "R4",
        "xa6"
      ],
      [
        "R6",
        "c3"
      ],
      [
        "Na",
        "xc3"
      ],
      [
        "N7",
        "xe5"
      ],
      [
        "N7",
        "b5"
      ],
      [
        "R2",
        "f6"
      ],
      [
        "R2",
        "h7"
      ],
      [
        "R2",
        "xf3"
      ],
      [
        "R7",
        "c5"
      ],
      [
        "R7",
        "c3"
      ],
      [
        "N2",
        "b4"
      ],
      [
        "Raxc",
        "2"
      ],
      [
        "Raxc",
        "5"
      ],
      [
        "Qd",
        "e4"
      ],
      [
        "Qd",
        "c4"
      ],
      [
        "Qd",
        "f3"
      ],
      [
        "Qd",
        "b4"
      ],
      [
        "Qd",
        "b1"
      ],
      [
        "Qd",
        "f7"
      ],
      [
        "Qd",
        "f2"
      ],
      [
        "N6",
        "g4"
      ],
      [
        "N6",
        "h7"
      ],
      [
        "Qh",
        "e4"
      ],
      [
        "Qh",
        "d5"
      ],
      [
        "Qh",
        "h6"
      ],
      [
        "Qh",
        "h3"
      ],
      [
        "Qh",
        "f6"
      ],
      [
        "Qh",
        "c8"
      ],
      [
        "Qa",
        "d4"
      ],
      [
        "Qa",
        "a6"
      ],
      [
        "Qa",
        "a2"
      ],
      [
        "Qa",
        "g7"
      ],
      [
        "Raxb",
        "7"
      ],
      [
        "Q3",
        "c4"
      ],
      [
        "N",
        "axb5"
      ],
      [
        "N",
        "hxg4"
      ],
      [
        "N",
        "dxc6"
      ],
      [
        "N",
        "axb3"
      ],
      [
        "N",
        "axb6"
      ],
      [
        "Q",
        "hxg7"
      ],
      [
        "Nf",
        "h6"
      ],
      [
        "Nf",
        "xg6"
      ],
      [
        "Nf",
        "xe2"
      ],
      [
        "Nf",
        "h7"
      ],
      [
        "Nf",
        "xh2"
      ],
      [
        "Nc",
        "d8"
      ],
      [
        "Nc",
        "xd2"
      ],
      [
        "Nc",
        "xa5"
      ],
      [
        "Rf",
        "h5"
      ],
      [
        "Rf",
        "b5"
      ],
      [
        "Rf",
        "xg5"
      ],
      [
        "Rf",
        "xg4"
      ],
      [
        "Rf",
        "xd7"
      ],
      [
        "Rf",
        "xc6"
      ],
      [
        "Rf",
        "xb2"
      ],
      [
        "Re",
        "h6"
      ],
      [
        "Re",
        "h4"
      ],
      [
        "Re",
        "b4"
      ],
      [
        "Re",
        "xb3"
      ],
      [
        "Re",
        "h2"
      ],
      [
        "Re",
        "xb8"
      ],
      [
        "Ra",
        "e4"
      ],
      [
        "Ra",
        "xe5"
      ],
      [
        "Ra",
        "h5"
      ],
      [
        "Ra",
        "e6"
      ],
      [
        "Ra",
        "xe3"
      ],
      [
        "Ra",
        "xb4"
      ],
      [
        "Ra",
        "xf6"
      ],
      [
        "Rc",
        "xe5"
      ],
      [
        "Rc",
        "f5"
      ],
      [
        "Rc",
        "xe3"
      ],
      [
        "Rc",
        "xb5"
      ],
      [
        "Rc",
        "xg6"
      ],
      [
        "Rc",
        "xe2"
      ],
      [
        "Rc",
        "xe8"
      ],
      [
        "Rc",
        "xd3"
      ],
      [
        "Rc",
        "xe1"
      ],
      [
        "Ng",
        "e1"
      ],
      [
        "Ng",
        "xf8"
      ],
      [
        "Nb",
        "a5"
      ],
      [
        "Nb",
        "xd3"
      ],
      [
        "Nb",
        "xa4"
      ],
      [
        "Qe",
        "d6"
      ],
      [
        "Qe",
        "f3"
      ],
      [
        "Qe",
        "b5"
      ],
      [
        "Qe",
        "xg6"
      ],
      [
        "Qe",
        "xe2"
      ],
      [
        "Qe",
        "e8"
      ],
      [
        "Qe",
        "g1"
      ],
      [
        "Qe",
        "g2"
      ],
      [
        "Qc",
        "d6"
      ],
      [
        "Qc",
        "e6"
      ],
      [
        "Qc",
        "a5"
      ],
      [
        "Qc",
        "c8"
      ],
      [
        "Rb",
        "xe4"
      ],
      [
        "Rb",
        "a3"
      ],
      [
        "Rb",
        "g3"
      ],
      [
        "Rb",
        "xe3"
      ],
      [
        "Rb",
        "xb5"
      ],
      [
        "Rb",
        "xe7"
      ],
      [
        "Rb",
        "xd6"
      ],
      [
        "Rb",
        "xh2"
      ],
      [
        "Rb",
        "xd3"
      ],
      [
        "Rb",
        "xc6"
      ],
      [
        "Rb",
        "xa7"
      ],
      [
        "Qg",
        "e4"
      ],
      [
        "Qg",
        "d7"
      ],
      [
        "Qg",
        "xg2"
      ],
      [
        "Qg",
        "f1"
      ],
      [
        "Qg",
        "f7"
      ],
      [
        "Qb",
        "d8"
      ],
      [
        "Qb",
        "h7"
      ],
      [
        "Qb",
        "e7"
      ],
      [
        "Qb",
        "e2"
      ],
      [
        "Qb",
        "g8"
      ],
      [
        "Ne",
        "d1"
      ],
      [
        "Ne",
        "xg6"
      ],
      [
        "Rg",
        "a4"
      ],
      [
        "Rg",
        "xe6"
      ],
      [
        "Rg",
        "xe7"
      ],
      [
        "Rg",
        "xe2"
      ],
      [
        "Rg",
        "xh6"
      ],
      [
        "Rg",
        "xd6"
      ],
      [
        "Rg",
        "xd8"
      ],
      [
        "Rg",
        "xd2"
      ],
      [
        "Rg",
        "xf6"
      ],
      [
        "Rg",
        "xc6"
      ],
      [
        "Rh",
        "xd5"
      ],
      [
        "Rh",
        "b6"
      ],
      [
        "Rh",
        "xg6"
      ],
      [
        "Rh",
        "xe7"
      ],
      [
        "Qf",
        "e4"
      ],
      [
        "Qf",
        "d5"
      ],
      [
        "Qf",
        "d7"
      ],
      [
        "Qf",
        "f4"
      ],
      [
        "Qf",
        "a3"
      ],
      [
        "Qf",
        "b4"
      ],
      [
        "Qf",
        "g4"
      ],
      [
        "Qf",
        "h2"
      ],
      [
        "Qf",
        "h7"
      ],
      [
        "Qf",
        "c8"
      ],
      [
        "Qf",
        "c1"
      ],
      [
        "Qf",
        "xf7"
      ],
      [
        "Rd",
        "a5"
      ],
      [
        "Rd",
        "a3"
      ],
      [
        "Rd",
        "b5"
      ],
      [
        "Rd",
        "b4"
      ],
      [
        "Rd",
        "xg5"
      ],
      [
        "Rd",
        "xg6"
      ],
      [
        "Rd",
        "xg7"
      ],
      [
        "Rd",
        "xb3"
      ],
      [
        "Rd",
        "h7"
      ],
      [
        "Rd",
        "xd1"
      ],
      [
        "Rd",
        "xb2"
      ],
      [
        "Nd",
        "e1"
      ],
      [
        "Nd",
        "c8"
      ],
      [
        "Nd",
        "c2"
      ],
      [
        "Nd",
        "b2"
      ],
      [
        "R1",
        "xe5"
      ],
      [
        "R1",
        "b5"
      ],
      [
        "R1",
        "xf4"
      ],
      [
        "R1",
        "xf2"
      ],
      [
        "R1",
        "xc5"
      ],
      [
        "R1",
        "xc2"
      ],
      [
        "R1",
        "xa5"
      ],
      [
        "R8",
        "xd4"
      ],
      [
        "R8",
        "xe5"
      ],
      [
        "R8",
        "h5"
      ],
      [
        "R8",
        "a5"
      ],
      [
        "R8",
        "b5"
      ],
      [
        "R8",
        "xh6"
      ],
      [
        "R8",
        "xb3"
      ],
      [
        "R8",
        "xd7"
      ],
      [
        "R8",
        "xf6"
      ],
      [
        "R8",
        "xc3"
      ],
      [
        "R8",
        "xa7"
      ],
      [
        "Nh",
        "xg7"
      ],
      [
        "R3",
        "c5"
      ],
      [
        "R3",
        "h6"
      ],
      [
        "R3",
        "e6"
      ],
      [
        "R3",
        "c6"
      ],
      [
        "R3",
        "b4"
      ],
      [
        "R3",
        "g4"
      ],
      [
        "R3",
        "b6"
      ],
      [
        "R3",
        "xe2"
      ],
      [
        "R3",
        "h7"
      ],
      [
        "R3",
        "f7"
      ],
      [
        "R3",
        "g7"
      ],
      [
        "R5",
        "c4"
      ],
      [
        "R5",
        "g4"
      ],
      [
        "R5",
        "b6"
      ],
      [
        "R5",
        "h7"
      ],
      [
        "R4",
        "xd5"
      ],
      [
        "R4",
        "h6"
      ],
      [
        "R4",
        "a5"
      ],
      [
        "R4",
        "b6"
      ],
      [
        "R4",
        "xb5"
      ],
      [
        "R4",
        "a2"
      ],
      [
        "R4",
        "h7"
      ],
      [
        "R4",
        "xf3"
      ],
      [
        "R6",
        "xd5"
      ],
      [
        "R6",
        "a4"
      ],
      [
        "R6",
        "xb5"
      ],
      [
        "R6",
        "g2"
      ],
      [
        "Na",
        "c1"
      ],
      [
        "R2",
        "h6"
      ],
      [
        "R2",
        "f5"
      ],
      [
        "R2",
        "g4"
      ],
      [
        "R2",
        "g5"
      ],
      [
        "R2",
        "xe3"
      ],
      [
        "R2",
        "e7"
      ],
      [
        "R2",
        "c7"
      ],
      [
        "R2",
        "xc4"
      ],
      [
        "R2",
        "xa3"
      ],
      [
        "R7",
        "c4"
      ],
      [
        "R7",
        "xd4"
      ],
      [
        "R7",
        "xe5"
      ],
      [
        "R7",
        "b4"
      ],
      [
        "R7",
        "g4"
      ],
      [
        "R7",
        "xf6"
      ],
      [
        "R7",
        "xa6"
      ],
      [
        "N2",
        "c4"
      ],
      [
        "N2",
        "f4"
      ],
      [
        "N2",
        "xe4"
      ],
      [
        "N2",
        "e3"
      ],
      [
        "N2",
        "xf3"
      ],
      [
        "Qd",
        "e6"
      ],
      [
        "Qd",
        "f6"
      ],
      [
        "Qd",
        "c8"
      ],
      [
        "Qd",
        "c2"
      ],
      [
        "N1",
        "f2"
      ],
      [
        "N5",
        "c4"
      ],
      [
        "N5",
        "h4"
      ],
      [
        "N5",
        "h3"
      ],
      [
        "N5",
        "b4"
      ],
      [
        "N5",
        "xf6"
      ],
      [
        "N4",
        "d3"
      ],
      [
        "N4",
        "h5"
      ],
      [
        "N4",
        "f5"
      ],
      [
        "N4",
        "a5"
      ],
      [
        "N4",
        "g5"
      ],
      [
        "N4",
        "e3"
      ],
      [
        "N4",
        "xf5"
      ],
      [
        "N6",
        "c5"
      ],
      [
        "N3",
        "xd4"
      ],
      [
        "N3",
        "xe4"
      ],
      [
        "Qh",
        "h4"
      ],
      [
        "Qh",
        "f3"
      ],
      [
        "Qh",
        "c6"
      ],
      [
        "Qh",
        "d1"
      ],
      [
        "Qh",
        "g4"
      ],
      [
        "Qh",
        "g5"
      ],
      [
        "Qh",
        "e1"
      ],
      [
        "Qh",
        "e8"
      ],
      [
        "Qh",
        "f1"
      ],
      [
        "Qh",
        "h8"
      ],
      [
        "Qh",
        "g1"
      ],
      [
        "Qh",
        "g7"
      ],
      [
        "Qa",
        "f3"
      ],
      [
        "Qa",
        "d1"
      ],
      [
        "Qa",
        "a1"
      ],
      [
        "Qa",
        "a8"
      ],
      [
        "Qa",
        "b7"
      ],
      [
        "Qa",
        "b2"
      ],
      [
        "N",
        "axb4"
      ],
      [
        "N",
        "hxg3"
      ],
      [
        "Q",
        "dxe5"
      ],
      [
        "Q",
        "dxe6"
      ],
      [
        "Nf",
        "xg3"
      ],
      [
        "Nf",
        "g7"
      ],
      [
        "Nc",
        "a5"
      ],
      [
        "Nc",
        "a3"
      ],
      [
        "Nc",
        "a7"
      ],
      [
        "Nc",
        "xe8"
      ],
      [
        "Nc",
        "xd8"
      ],
      [
        "Nc",
        "xa7"
      ],
      [
        "Nc",
        "xb8"
      ],
      [
        "Rf",
        "a4"
      ],
      [
        "Rf",
        "b6"
      ],
      [
        "Rf",
        "xg7"
      ],
      [
        "Rf",
        "xg1"
      ],
      [
        "Rf",
        "xc4"
      ],
      [
        "Rf",
        "xc3"
      ],
      [
        "Re",
        "h5"
      ],
      [
        "Re",
        "xg6"
      ],
      [
        "Re",
        "xg3"
      ],
      [
        "Re",
        "xg2"
      ],
      [
        "Re",
        "xf7"
      ],
      [
        "Re",
        "xc6"
      ],
      [
        "Re",
        "xc3"
      ],
      [
        "Re",
        "xc5"
      ],
      [
        "Re",
        "xc1"
      ],
      [
        "Re",
        "xa2"
      ],
      [
        "Re",
        "xb7"
      ],
      [
        "Ra",
        "h4"
      ],
      [
        "Ra",
        "f4"
      ],
      [
        "Ra",
        "g6"
      ],
      [
        "Ra",
        "xe6"
      ],
      [
        "Ra",
        "g5"
      ],
      [
        "Ra",
        "g3"
      ],
      [
        "Ra",
        "xb6"
      ],
      [
        "Ra",
        "xd6"
      ],
      [
        "Ra",
        "xd3"
      ],
      [
        "Ra",
        "xg1"
      ],
      [
        "Ra",
        "xf2"
      ],
      [
        "Ra",
        "xf1"
      ],
      [
        "Rc",
        "g4"
      ],
      [
        "Rc",
        "g5"
      ],
      [
        "Rc",
        "xg7"
      ],
      [
        "Rc",
        "xg2"
      ],
      [
        "Rc",
        "h2"
      ],
      [
        "Rc",
        "xf3"
      ],
      [
        "Rc",
        "xf8"
      ],
      [
        "Rc",
        "xb2"
      ],
      [
        "Rc",
        "xb7"
      ],
      [
        "Ng",
        "xh7"
      ],
      [
        "Nb",
        "a7"
      ],
      [
        "Nb",
        "xc8"
      ],
      [
        "Nb",
        "xc2"
      ],
      [
        "Nb",
        "xa7"
      ],
      [
        "Qe",
        "d8"
      ],
      [
        "Qe",
        "b4"
      ],
      [
        "Qe",
        "xf2"
      ],
      [
        "Qc",
        "e4"
      ],
      [
        "Qc",
        "f5"
      ],
      [
        "Qc",
        "f6"
      ],
      [
        "Qc",
        "a6"
      ],
      [
        "Qc",
        "a3"
      ],
      [
        "Qc",
        "g6"
      ],
      [
        "Qc",
        "b4"
      ],
      [
        "Qc",
        "g5"
      ],
      [
        "Qc",
        "b3"
      ],
      [
        "Qc",
        "g1"
      ],
      [
        "Qc",
        "f7"
      ],
      [
        "Qc",
        "b2"
      ],
      [
        "Rb",
        "xd5"
      ],
      [
        "Rb",
        "f5"
      ],
      [
        "Rb",
        "f6"
      ],
      [
        "Rb",
        "a4"
      ],
      [
        "Rb",
        "xe2"
      ],
      [
        "Rb",
        "xg2"
      ],
      [
        "Rb",
        "xf6"
      ],
      [
        "Rb",
        "xf4"
      ],
      [
        "Rb",
        "xc4"
      ],
      [
        "Rb",
        "xf1"
      ],
      [
        "Rb",
        "xc5"
      ],
      [
        "Rb",
        "xc2"
      ],
      [
        "Rb",
        "xa5"
      ],
      [
        "Rb",
        "xa4"
      ],
      [
        "Qg",
        "f4"
      ],
      [
        "Qg",
        "c6"
      ],
      [
        "Qg",
        "xg7"
      ],
      [
        "Qg",
        "f2"
      ],
      [
        "Qg",
        "xa2"
      ],
      [
        "Qb",
        "e4"
      ],
      [
        "Qb",
        "d7"
      ],
      [
        "Qb",
        "d3"
      ],
      [
        "Qb",
        "f5"
      ],
      [
        "Qb",
        "d1"
      ],
      [
        "Ne",
        "c8"
      ],
      [
        "Ne",
        "f2"
      ],
      [
        "Ne",
        "g7"
      ],
      [
        "Rg",
        "c4"
      ],
      [
        "Rg",
        "xe4"
      ],
      [
        "Rg",
        "c6"
      ],
      [
        "Rg",
        "a6"
      ],
      [
        "Rg",
        "b3"
      ],
      [
        "Rg",
        "a1"
      ],
      [
        "Rg",
        "xg8"
      ],
      [
        "Rg",
        "xg1"
      ],
      [
        "Rg",
        "xd7"
      ],
      [
        "Rg",
        "xd1"
      ],
      [
        "Rg",
        "xf5"
      ],
      [
        "Rg",
        "xf1"
      ],
      [
        "Rg",
        "xc2"
      ],
      [
        "Rh",
        "a5"
      ],
      [
        "Rh",
        "c3"
      ],
      [
        "Rh",
        "a3"
      ],
      [
        "Rh",
        "xg5"
      ],
      [
        "Rh",
        "xg4"
      ],
      [
        "Rh",
        "b3"
      ],
      [
        "Rh",
        "xe3"
      ],
      [
        "Rh",
        "xe2"
      ],
      [
        "Rh",
        "xb6"
      ],
      [
        "Rh",
        "b2"
      ],
      [
        "Rh",
        "xd2"
      ],
      [
        "Qf",
        "e5"
      ],
      [
        "Qf",
        "c4"
      ],
      [
        "Qf",
        "h4"
      ],
      [
        "Qf",
        "e8"
      ],
      [
        "Qf",
        "xg2"
      ],
      [
        "Qf",
        "g7"
      ],
      [
        "Qf",
        "g2"
      ],
      [
        "Rd",
        "h6"
      ],
      [
        "Rd",
        "g4"
      ],
      [
        "Rd",
        "xf8"
      ],
      [
        "Rd",
        "xb1"
      ],
      [
        "Nd",
        "e8"
      ],
      [
        "Nd",
        "xe8"
      ],
      [
        "Nd",
        "c1"
      ],
      [
        "Nd",
        "xf1"
      ],
      [
        "R1",
        "a4"
      ],
      [
        "R1",
        "xe6"
      ],
      [
        "R1",
        "xg5"
      ],
      [
        "R1",
        "xg4"
      ],
      [
        "R1",
        "xb5"
      ],
      [
        "R1",
        "xb4"
      ],
      [
        "R1",
        "xb6"
      ],
      [
        "R1",
        "xf6"
      ],
      [
        "R1",
        "xf3"
      ],
      [
        "R1",
        "xf5"
      ],
      [
        "R1",
        "xa2"
      ],
      [
        "R8",
        "xd5"
      ],
      [
        "R8",
        "a6"
      ],
      [
        "R8",
        "a4"
      ],
      [
        "R8",
        "xd3"
      ],
      [
        "R8",
        "g2"
      ],
      [
        "R8",
        "xf5"
      ],
      [
        "R8",
        "xc6"
      ],
      [
        "R8",
        "xc5"
      ],
      [
        "R8",
        "xa2"
      ],
      [
        "R8",
        "xa4"
      ],
      [
        "Nh",
        "xf7"
      ],
      [
        "R3",
        "e5"
      ],
      [
        "R3",
        "xd5"
      ],
      [
        "R3",
        "h5"
      ],
      [
        "R3",
        "a5"
      ],
      [
        "R3",
        "b5"
      ],
      [
        "R3",
        "xh4"
      ],
      [
        "R3",
        "xd2"
      ],
      [
        "R3",
        "xf4"
      ],
      [
        "R3",
        "xc4"
      ],
      [
        "R3",
        "xc6"
      ],
      [
        "R5",
        "xd4"
      ],
      [
        "R5",
        "h3"
      ],
      [
        "R5",
        "xe4"
      ],
      [
        "R5",
        "a3"
      ],
      [
        "R5",
        "b4"
      ],
      [
        "R5",
        "a2"
      ],
      [
        "R5",
        "h2"
      ],
      [
        "R5",
        "xd6"
      ],
      [
        "R4",
        "h3"
      ],
      [
        "R4",
        "a6"
      ],
      [
        "R4",
        "g6"
      ],
      [
        "R4",
        "xh3"
      ],
      [
        "R4",
        "b7"
      ],
      [
        "R4",
        "xc3"
      ],
      [
        "R4",
        "xc2"
      ],
      [
        "R6",
        "xe5"
      ],
      [
        "R6",
        "h4"
      ],
      [
        "R6",
        "b4"
      ],
      [
        "R6",
        "g4"
      ],
      [
        "R6",
        "xg4"
      ],
      [
        "R6",
        "h2"
      ],
      [
        "R6",
        "b2"
      ],
      [
        "R6",
        "xd2"
      ],
      [
        "R6",
        "xf5"
      ],
      [
        "R6",
        "xa3"
      ],
      [
        "Na",
        "c8"
      ],
      [
        "N7",
        "xd5"
      ],
      [
        "N7",
        "g5"
      ],
      [
        "N7",
        "xb6"
      ],
      [
        "N7",
        "xc6"
      ],
      [
        "N7",
        "xc5"
      ],
      [
        "R2",
        "xd5"
      ],
      [
        "R2",
        "c5"
      ],
      [
        "R2",
        "xe5"
      ],
      [
        "R2",
        "h5"
      ],
      [
        "R2",
        "h4"
      ],
      [
        "R2",
        "c6"
      ],
      [
        "R2",
        "g6"
      ],
      [
        "R2",
        "b5"
      ],
      [
        "R2",
        "b4"
      ],
      [
        "R2",
        "xe6"
      ],
      [
        "R2",
        "xg3"
      ],
      [
        "R2",
        "a7"
      ],
      [
        "R2",
        "xb3"
      ],
      [
        "R2",
        "b7"
      ],
      [
        "R2",
        "xf4"
      ],
      [
        "R2",
        "xf5"
      ],
      [
        "R2",
        "xa5"
      ],
      [
        "R2",
        "xa4"
      ],
      [
        "R7",
        "h5"
      ],
      [
        "R7",
        "h4"
      ],
      [
        "R7",
        "a3"
      ],
      [
        "R7",
        "b5"
      ],
      [
        "R7",
        "xg5"
      ],
      [
        "R7",
        "b3"
      ],
      [
        "R7",
        "xh5"
      ],
      [
        "R7",
        "a2"
      ],
      [
        "R7",
        "xd6"
      ],
      [
        "R7",
        "xc4"
      ],
      [
        "N2",
        "d3"
      ],
      [
        "N2",
        "xd4"
      ],
      [
        "N2",
        "a3"
      ],
      [
        "N2",
        "g4"
      ],
      [
        "N2",
        "xg3"
      ],
      [
        "N2",
        "xf4"
      ],
      [
        "Qd",
        "c5"
      ],
      [
        "Qd",
        "g6"
      ],
      [
        "Qd",
        "g4"
      ],
      [
        "Qd",
        "g5"
      ],
      [
        "Qd",
        "e8"
      ],
      [
        "Qd",
        "h8"
      ],
      [
        "Qd",
        "xf7"
      ],
      [
        "N8",
        "d6"
      ],
      [
        "N8",
        "e6"
      ],
      [
        "N8",
        "xe6"
      ],
      [
        "N8",
        "b6"
      ],
      [
        "N8",
        "xe7"
      ],
      [
        "N8",
        "xh6"
      ],
      [
        "N8",
        "g7"
      ],
      [
        "N1",
        "h3"
      ],
      [
        "N1",
        "a3"
      ],
      [
        "N1",
        "e3"
      ],
      [
        "N1",
        "c2"
      ],
      [
        "N1",
        "b2"
      ],
      [
        "N1",
        "g2"
      ],
      [
        "N1",
        "xd2"
      ],
      [
        "N1",
        "xc3"
      ],
      [
        "N5",
        "d3"
      ],
      [
        "N5",
        "a4"
      ],
      [
        "N4",
        "xd5"
      ],
      [
        "N4",
        "b5"
      ],
      [
        "N4",
        "xh5"
      ],
      [
        "N4",
        "xa5"
      ],
      [
        "N6",
        "xd5"
      ],
      [
        "N6",
        "b5"
      ],
      [
        "N6",
        "b4"
      ],
      [
        "N6",
        "xg5"
      ],
      [
        "N6",
        "xc5"
      ],
      [
        "N6",
        "xa5"
      ],
      [
        "N3",
        "c4"
      ],
      [
        "N3",
        "c5"
      ],
      [
        "N3",
        "xe5"
      ],
      [
        "N3",
        "b5"
      ],
      [
        "N3",
        "g5"
      ],
      [
        "N3",
        "f2"
      ],
      [
        "Qh",
        "d6"
      ],
      [
        "Qh",
        "f4"
      ],
      [
        "Qh",
        "f5"
      ],
      [
        "Qh",
        "d8"
      ],
      [
        "Qh",
        "g6"
      ],
      [
        "Qh",
        "e3"
      ],
      [
        "Qh",
        "xh5"
      ],
      [
        "Qh",
        "f7"
      ],
      [
        "Qh",
        "f2"
      ],
      [
        "Qa",
        "d5"
      ],
      [
        "Qa",
        "c4"
      ],
      [
        "Qa",
        "c6"
      ],
      [
        "Qa",
        "d8"
      ],
      [
        "Qa",
        "b5"
      ],
      [
        "Qa",
        "e1"
      ],
      [
        "Qa",
        "a7"
      ],
      [
        "Qa",
        "e2"
      ],
      [
        "Qa",
        "c8"
      ],
      [
        "Qa",
        "h8"
      ],
      [
        "Qa",
        "g1"
      ],
      [
        "Qa",
        "b8"
      ],
      [
        "Qa",
        "f2"
      ],
      [
        "Rcxc",
        "8"
      ],
      [
        "Raxa",
        "1"
      ],
      [
        "Q1",
        "d2"
      ],
      [
        "Q1",
        "f4"
      ],
      [
        "Q1",
        "e2"
      ],
      [
        "Q1",
        "f1"
      ],
      [
        "Q4",
        "c6"
      ],
      [
        "Q4",
        "c3"
      ],
      [
        "Q4",
        "xf6"
      ],
      [
        "Q5",
        "e4"
      ],
      [
        "Q8",
        "d5"
      ],
      [
        "Q8",
        "d7"
      ],
      [
        "Q8",
        "h8"
      ],
      [
        "Q8",
        "c7"
      ],
      [
        "Q7",
        "f6"
      ],
      [
        "Q7",
        "e7"
      ],
      [
        "Q6",
        "b7"
      ],
      [
        "Q2",
        "c3"
      ]
    ]
  }
}